0002
0003
0002
0003
fffe
0000
0000
ffff
0000
0000
ffff
ffc1
ff87
0071
00ea
002f
003b
00f6
fedf
ffc7
ff2d
ffe3
ffff
0005
fffe
0004
fffe
0002
0001
fffc
fffd
0000
0004
0001
fffd
fffe
fffd
0000
0004
ffff
ffb3
fe92
0073
0045
007b
0013
ffd3
ffd8
fffe
003a
fff8
00ba
0030
0010
fef2
ffb0
0003
fffd
0003
ffff
0003
0002
0000
0003
0000
0000
0002
fffc
0001
0001
ffda
ff8a
00f3
ffcd
ffad
ffe5
ffcd
0046
fffa
0026
fff9
0002
0086
0034
ffee
ffe2
0046
fe07
feed
ffc9
fffb
0001
0001
0000
ffff
0003
ffff
0001
fffd
fffc
ffc2
ffc0
0024
0016
0017
ff77
001a
ffcb
0018
0023
0022
fff0
ffae
ffd6
004a
002a
0032
ffda
ffa5
ffe6
00ed
001d
ff2e
0004
0000
0004
fffe
0002
0000
0002
0002
0001
ff72
00c7
0021
0050
009a
fff5
0003
ffec
ffc3
ffb7
ffb6
ffda
ff8b
ffd8
ffce
0018
ffef
0014
ffc8
007a
003c
0049
fdde
ff13
ffe4
fffe
0000
0001
0003
0000
fffb
ff2b
002f
00af
004a
00be
ffb3
ffed
ffc5
0043
000f
fffb
ffe4
ffd6
0032
ffa2
ff9a
ffa9
ffcb
0030
0038
0025
007f
000d
0028
fe0a
ff27
0005
0002
0003
0001
fffd
ffa1
0065
001d
0060
0006
0009
002e
fff3
fffb
fffb
ffb3
0006
0022
ffb2
ffec
ffc9
ffa5
0022
fff3
0067
0054
0074
ffee
ffe5
0027
ff91
feb2
ff78
0003
0000
0000
0002
ffab
0022
ffe6
0004
ffc9
0012
0011
ffe1
ffe3
003d
ffb4
003b
001f
ffa9
ffef
ffe1
004b
0064
001b
001a
002a
0012
0020
0058
001b
0027
014b
feeb
fffe
fffc
ffff
ffa6
010c
ffa7
001b
fff1
0004
ffe7
001b
ffda
ffd2
0032
004b
ffed
003b
ffc8
ffda
ffab
0007
ffdd
0039
ffd9
ffe6
006b
0077
0048
0039
0013
00d6
fe52
ffb7
0000
0001
fd74
0077
ffff
ffb6
fffc
ffb5
ffce
002f
ffe2
0035
ffbf
fffa
0000
ffd0
ffa4
0000
ffe9
0067
002b
000c
fff5
001b
0007
0053
006e
001b
0020
008d
ff9f
fe74
fffe
fff3
011a
ffe9
003b
fff1
000d
ffdb
0007
ff99
0058
ffed
ffeb
ff70
ffda
ffd2
0005
0002
0019
004e
008b
0008
fffd
003f
fff0
fff5
0055
005e
0066
009a
0031
fddb
fffa
fd33
009d
ffa9
0013
ffdf
ffb2
ffed
0047
001b
ffff
0005
ffc1
ff74
ffe2
ff85
0035
0004
ffa7
ff8e
ffa9
ffba
0066
000e
002b
0042
0043
0059
fffb
0016
003c
00a5
fea2
0087
0077
ffdb
fff5
ff8a
0025
0043
fff8
fff1
0026
ffd5
ffa6
ffff
0008
ff97
ffa5
0017
0016
ff72
ffbd
ffe4
0058
ffe4
0042
0068
0014
0062
ffe4
0045
0026
005d
fdc8
0132
fff2
0061
ffd9
ffe7
ffa0
fff3
ff92
0039
fff4
fff3
ffd1
ff51
ffc4
ff7e
ff8c
ff68
ff76
ff98
ff9f
0007
ffbf
ffa4
ffe4
0015
0058
0041
0041
fff9
0033
0072
ffcf
ffd1
0075
0018
ffea
0015
0028
fff6
000e
0005
fff7
ffd0
ffea
ffce
ffed
ffcc
ffb2
fff7
ffd9
ffd8
ffc0
fffb
ffc1
ffdb
0051
0045
006f
fff7
001a
0018
006f
0033
013d
002e
002d
ffd2
ffd9
ffeb
0043
0017
ffc8
ffc8
fffd
ffd3
ff60
ffeb
0014
ff57
006b
0016
ffac
0058
0019
ffe1
ffbd
ffec
001d
0062
0012
0023
009e
000d
006f
0035
0059
ffb3
0022
ffef
ff6c
0039
ffec
0007
ffcd
0000
ffd3
ff82
ff8b
000d
ffc4
ffbf
ffd2
ffb7
ffbb
ffca
003e
ffd6
ffe7
ffdc
ff79
0052
ffc0
0038
001a
0041
001c
004f
0085
0087
ffce
ffd8
ffbf
0016
0013
ffea
ffda
ffad
ffd7
ffe6
0009
ffdf
0031
ffb1
000b
ff8c
ff92
ff84
ffe5
ffe9
ffc7
0028
00a8
0071
0013
005f
0002
004c
0072
0028
010f
011b
ffde
002a
ffae
ffcf
fffd
001b
0015
ffcd
ffea
ffe8
ffc1
ff8e
0001
ffb5
ff73
ffbd
ffcb
ff9c
ff2c
ffc1
ffb7
ffca
ffe7
fff6
002a
ffbd
000c
0036
0050
002f
fedf
0057
003b
ffd0
ffaa
ff90
0052
ffb8
0010
0005
ffb8
ffc9
0011
ffa6
ff6f
ff65
ff8e
ffaf
ff88
ffb2
ff98
ff95
ff7a
ffa2
fffd
ff9f
ffc1
0043
000e
ffe0
0028
004f
ff2e
fe0b
ffe6
ffb8
fffb
ffa1
ffd1
ffe5
000d
ffa6
ffa6
0047
ff96
ff8d
ffa8
ffa6
ffd0
ffd7
ffb0
ffa0
ffe6
ffdb
ff94
0030
fffd
ffeb
fffe
ffc4
000b
008f
0010
0022
ff0f
0019
013b
ffed
ffab
ffc2
0019
004c
fff5
ff73
ffe3
ffcc
ff9a
ffb5
ff8b
ff7a
000d
ffa8
ffd7
ff88
ffc3
003e
fff5
ff9d
ffd1
001b
ffb4
ffee
ffa4
0006
000f
014f
ffed
fffe
0090
ffdc
ffe5
ffd9
fff1
ffd7
ff2c
ff7a
fff7
fffa
ffd2
0008
0043
0025
ff72
fff7
ff97
ff9d
fffa
ffb0
fff2
ffe3
0019
0035
ffd9
001d
0030
0048
0060
ff11
0001
0004
006c
007b
002b
0000
0009
0010
0024
ff7c
ffb9
ffb7
ffdd
0011
0099
000c
ff7b
ffba
0019
ffe1
0043
0034
0061
0035
ffe7
000a
ffa6
000f
0013
001f
00a0
ffbe
fffd
0002
fffc
01c2
004a
ff8a
0037
ffea
ffa3
ffff
ffda
ff91
ffab
ff7f
0030
0037
0007
0052
ffc3
ffd7
ffb4
0021
fffc
00d3
003a
ffb5
ff7d
0032
fff4
0074
0025
fffd
0003
fffd
0000
ff5e
00eb
ff61
ffa6
ffa3
ffc8
ffaf
ff81
ffbc
0004
ff75
ffad
ffa8
ffca
ffdc
ff6e
ff9e
ffe4
ffd9
ff7d
ffb4
ffd9
005b
ffdc
fffd
ffa2
ff27
ff8f
0002
0000
0000
0002
ffff
ff09
003e
000c
0031
ff8e
ff84
ffa7
0026
ffe6
0045
ffe4
ffc8
ff73
ff94
0005
ffe3
ffc5
001d
006a
ffda
ffc7
0016
0025
0039
00bc
ff37
0002
0002
0004
0002
ffff
0000
002d
ffe8
0084
ff81
0015
ffad
ffb3
fffe
ffe4
ffec
0030
ffcb
ff80
004e
ffe2
ff89
ffbf
ffe3
ff9f
fff4
ffe4
ffdd
ff82
fe97
fff9
ffbe
fffe
fffe
ffff
0000
0001
fffb
fffe
0006
0064
019d
ff2c
0009
ffa4
fffb
0001
fff4
ff99
0009
ff57
ffe8
ffa9
ffb8
ffab
ff76
ffca
ffa7
ffbd
ffed
007c
ff7e
fffc
0001
0004
0000
0001
0000
fffc
0001
0000
0002
0001
ffa6
fecf
00d7
0016
ff9a
ff4e
001c
ffea
0026
ffc8
005e
ff9e
ff97
ffd3
ffc2
ffc6
ffff
0071
0009
00b1
0000
ffff
fffd
0000
fffd
fffb
0004
0001
ffff
ffff
0000
0002
fffe
00df
0090
0281
0015
0028
0032
fff6
ff8a
ffc0
ffcc
ffaa
ff76
fffd
0059
0060
01f1
0049
fffe
0000
0001
fffe
0005
fffd
fffe
0002
0002
0001
fffb
fffc
0002
0000
fffd
0002
0004
fffe
0100
00bb
02c3
ff51
ff82
ffcb
ff62
ff39
0138
026c
00c3
00de
0001
0000
fffb
0001
fffe
fffe
0006
0001
fffd
0003
