fffb
0000
0001
ffff
ffff
0001
fffe
ffff
0002
fffe
0000
0003
0005
001b
0015
0017
0016
0013
0015
0017
0003
fffc
fffe
ffff
0001
fffe
fffc
fffe
0000
0003
ffff
0003
0002
0002
0002
0000
fffa
fffc
ffff
0002
ffff
000a
0013
0012
0014
0010
000f
0012
0015
0016
0014
0015
0011
000e
000d
0009
fffe
0000
0000
fffd
0000
0005
fffc
0000
fffc
0000
0001
fffe
0005
0000
0002
0008
0006
000e
0012
0015
0016
0012
0016
0016
0012
0013
0012
0015
0015
0015
0013
0012
0002
0002
fffc
ffff
0001
0001
fffb
fffe
fffe
fffc
fffd
fffe
0002
0003
0002
0012
0016
0010
0012
0010
0012
0012
000f
0014
0010
0010
0010
0012
0011
000f
000f
0017
0014
ffff
0004
ffff
ffff
ffff
fffb
0002
0003
0001
0001
0003
0002
ffff
0016
001a
0010
0011
0013
000f
0010
0014
0011
0013
0013
000f
000f
0012
0010
0012
0012
0010
0014
0015
0014
0005
fffe
fffe
0001
ffff
0000
0000
0002
0002
0008
0013
0014
000f
0010
0014
0010
0012
000e
000f
0014
0013
0014
0014
0011
0010
0010
0013
0012
0011
0014
0010
0015
0013
0008
0000
0000
0000
ffff
ffff
0002
0004
0013
0014
0010
0012
0012
000e
0011
0012
0011
0012
000f
0011
000c
000e
0010
0012
0012
000f
000b
000f
0011
0015
000e
0010
0015
000b
0000
0000
ffff
fffd
0003
000d
0010
000c
0010
0011
0014
0016
0013
0010
0018
0011
0010
0010
000e
0014
000e
0014
0015
000f
000f
0010
000c
0015
0012
000e
001b
0011
fffe
0002
fffc
0001
000d
0018
0012
0013
0013
000e
0011
0013
000f
000e
000f
0015
0014
000b
0014
0014
0011
0010
0011
0016
000c
0015
000f
000f
0015
000f
0015
0010
0003
fffe
ffff
0006
000f
0012
0013
0011
0013
0010
0012
0014
0012
0013
0013
000f
0016
000f
0018
0014
0014
0012
0015
0014
0013
0011
0015
0010
0012
0011
0011
0012
0014
0002
0000
0005
0012
0015
0017
0011
0015
0010
0014
0016
0018
000f
0016
001a
0011
0010
0011
0017
0012
0012
0012
0014
0011
000e
0011
0013
000d
0011
0012
0011
0013
fffc
0004
0010
0016
0012
000f
000f
0017
0013
000b
0010
000c
0013
0015
0015
0017
0014
0018
0013
0013
001a
0015
0011
0012
000e
000f
000f
000f
000d
000d
0011
0012
000c
fffe
0016
0014
0013
000e
0015
0013
000e
0013
0011
0012
000c
0015
0014
0017
0018
0017
0017
0017
0019
0011
000e
0011
0012
0015
0011
0011
0012
0013
0012
0015
001a
0008
0013
000e
0012
0013
0011
000e
000f
0015
0015
0010
0012
0013
0018
0015
001a
001e
001a
001d
0015
0014
0012
0011
0013
0010
000d
0010
000c
0011
0012
000f
0017
001c
0011
000f
0011
0010
0012
0011
0010
0011
0015
0013
0015
0019
0016
0017
001b
001e
001a
0017
001b
0011
0015
0013
0013
0013
0010
000c
0012
000f
0013
0016
0015
001f
0014
000e
0010
0010
0010
0013
0011
0010
0013
0012
0011
0012
001a
001e
001d
0019
0019
001a
0019
001c
0015
0015
0010
0013
0010
0011
000d
0011
000e
0014
0017
001f
0014
0010
000e
000e
0012
0012
0018
000d
0015
0015
0019
0014
0015
001b
0019
001f
001e
0016
0016
001b
0012
0010
000f
0012
0012
0013
0011
000e
0017
0018
0013
0022
0013
0012
0012
0016
000f
0013
0010
0013
0013
0016
0010
0013
0013
0019
001c
0018
001c
001c
0016
0014
0012
0015
0019
000e
0010
0015
0013
000d
0011
0012
0017
0003
0011
000f
0010
0011
0012
0011
000f
0012
0012
0011
0013
0016
0017
001a
0019
001b
0018
0013
0015
0017
0012
0015
0012
0012
0010
000f
0010
0012
0011
0012
0018
0002
000e
0016
0008
0013
0011
000b
0012
0012
0011
000f
0012
0015
0011
0014
0012
0014
0012
0015
0015
0010
0014
0014
0014
0012
0013
0010
0012
0012
000b
0014
001c
0004
0015
0014
000a
0013
0013
0013
0016
000f
0015
0013
0012
000f
0014
0011
001a
0016
0016
0015
0017
0014
0019
0011
0014
0013
0013
000f
0013
0012
0011
0015
000b
fffd
000b
0019
0011
000d
0010
0017
0011
0013
0010
000f
0013
0016
001b
0011
0013
0015
0013
0013
0014
0010
0011
0010
0012
0012
0016
0010
0011
000f
0016
0011
0002
0003
0000
000e
0014
000f
000e
0012
000f
000f
0014
000d
0010
0015
0017
0012
000d
0010
000f
000f
0017
0013
0016
0014
0013
000f
0010
0011
000d
0011
0015
0011
0004
0001
0003
0012
0018
0010
000f
0015
0011
000f
0012
000f
0010
0013
0014
0015
0015
000e
0013
0015
0010
000f
000f
0013
000e
0014
000d
000e
0012
0014
000c
0000
0001
0001
0005
0004
0010
0014
0011
000e
000f
0012
0014
0010
0013
0010
0013
0014
000f
000f
0015
0015
0013
0010
000f
0011
0010
000e
0011
0013
0012
001d
0010
fffe
0003
0002
0003
ffff
0002
0010
000f
0011
000f
000c
0010
0016
000f
0013
0012
0016
0012
0013
000f
0014
0010
0015
0011
000f
000c
0012
000c
0013
0019
0012
000a
fffc
0001
0000
fffb
fffe
0004
0003
0014
0012
0014
000c
0011
0011
0011
0010
000e
0013
0012
0017
0014
0010
0011
000c
0010
0011
000e
0011
0010
000f
0015
0007
0002
0000
fffd
ffff
0000
ffff
fffe
0002
0005
0016
0016
0017
0010
0015
0015
000f
0011
0013
000d
0014
0011
000c
000f
0013
0010
0011
000e
0012
0018
0016
0005
0002
0000
0001
0003
fffd
0002
0000
0003
0001
fffd
0005
0019
0014
0017
0011
000e
0011
0012
0014
000d
000b
000f
000f
000d
0011
0018
000d
0018
0015
0000
fffe
0000
0002
0004
0002
0002
0002
0001
0002
ffff
0000
fffc
0001
0006
0007
0017
0013
0014
0014
0012
0012
0013
0010
0012
0015
0012
0014
0019
0018
0013
0005
0003
fffd
0000
0004
0003
0006
fffd
0001
fffe
0004
ffff
fffe
0003
0003
ffff
0004
0004
0012
0010
000e
0016
0013
0011
0014
0012
0016
0015
0015
0011
000c
0008
0000
0000
0005
fffc
ffff
0000
0003
0004
0001
0006
0004
0000
fffe
ffff
fffc
0001
0005
0000
ffff
fffd
0002
0015
0016
0016
0015
0017
0019
0017
fffc
fffd
ffff
0003
fffd
fffb
fffd
0000
fffe
0003
fffd
ffff
