fffc
fffe
ffff
0002
0003
0001
ffff
0001
0002
0001
fffd
ffff
fffd
fffb
fff2
fff5
fff8
fff5
fff5
fffd
fffc
0003
fffe
ffff
0000
fffb
0002
fffe
0003
fffe
0001
0001
0000
0001
0004
fffc
0002
ffff
0003
0004
fffe
fffa
fffa
fff9
fff7
fff6
fff6
fff7
fff7
fff7
fff7
fff6
fff5
fff6
fff6
0001
fffe
fffd
0002
ffff
fffe
ffff
0004
0003
fffe
0001
0001
0001
ffff
0002
0003
0000
fff4
fff8
fff8
fff9
fff7
fffb
fff6
fff5
fffb
fff3
fff2
fff7
fff4
fff6
fff3
fff5
fffa
ffff
0003
0000
0002
0001
0002
fffc
0002
0000
fffe
ffff
fffa
ffff
fffb
fff8
fff5
fffa
fff3
fff9
fff6
fffa
fff2
fff2
fff7
fff3
fff5
fff5
fff5
fff9
fff8
fff7
fff8
fff7
ffff
fffb
0006
ffff
0004
0002
fffd
fffe
0000
ffff
0002
fff6
fff7
fffd
fff6
fff3
fff9
fff7
fff9
fff3
fff4
fff5
fffa
fff7
fff7
fff7
fff7
fff7
fff2
fff8
fff9
fff9
fff9
fffd
0000
ffff
0001
0000
fffc
0003
fffc
fffd
fffa
fff9
fff3
fff8
fffa
fff5
fff6
fff8
fff4
fffd
fff3
fff7
fff6
fff4
fff7
fff5
fff9
fff8
fff3
fffa
fff8
fff9
fff4
fffb
ffff
fffd
0000
0005
0001
0002
fffe
fff8
fffa
fff8
fff5
fff4
fff2
fff3
fff8
fff7
fff4
fff6
fff9
fff6
fff8
fff0
fff8
fff7
fff7
fffb
fff5
fff6
fff7
fffe
fffa
fff5
fff8
fffc
0002
0003
fffe
0001
fffe
fff4
fff9
fff5
fff8
fff8
fff8
fff2
fff5
fff9
fff7
fff7
fff4
fffc
fff0
fff7
fff6
fff4
fff7
fffb
fff7
fff6
fffa
fff5
fff7
fff4
fff7
ffff
fffc
0003
fffd
ffff
fff5
fff7
fff5
fff4
fff8
fffa
fff5
fff8
fff8
fff5
fff9
fff9
fff1
fffb
fff5
fff7
fff3
fff8
fff5
fff5
fff5
fff8
fff7
fffa
fff4
fff6
fff3
fff9
fffb
0000
fffe
fffc
fff4
fff5
fff5
fff6
fff5
fff8
fff9
fff6
fff3
fff8
fff4
fff9
fffb
fff9
fffa
fffb
fff7
fff5
fff5
fffa
fff8
fff7
fff6
fff5
fff1
fff8
fff7
fff6
fff2
0000
fffd
fff4
fff2
fff6
fff8
fff4
fff6
fff7
fff6
fff8
fffa
fff7
fff2
fffa
fff6
fff3
fff5
fffa
fff7
fff3
fff6
fff8
fff8
fffc
fff8
fffb
fffb
fff4
fff5
fffb
fff9
ffff
fffb
fff5
fff7
fff6
fff4
fff4
fff7
fff4
fff6
fff5
fff3
fff9
fff5
fff8
fffa
fff3
fff4
fff6
fff2
fff4
fffa
fff8
fff6
fff6
fff4
fff7
fff6
fff8
fff7
fff4
fffa
0001
fffe
fff4
fff6
fff4
fffb
fff5
fff8
fff0
fff6
fff3
fff5
fff8
fff5
fff7
fff4
fff4
fff4
fff6
fff8
fff2
fff7
ffef
fff4
fff2
fffb
fff9
fff3
fff8
fff3
fff3
fff6
fffa
fff9
fff7
fff4
fff6
fff4
fff5
fff5
fff7
fff2
fff4
fff5
fff4
fffb
fffa
fff7
fffa
fff8
fff3
fff2
fff5
fff7
fff8
fff9
fff8
fff3
fff6
fff5
fff5
fff7
fff9
fff4
fff8
fff6
fff3
fff7
fffa
fff6
fff9
fffa
fff8
fffa
fffa
fff8
fff9
fff4
fff7
fffa
fff5
fffa
fff4
fff4
fff3
fff8
fff3
fff4
fff7
fff8
fff8
fff6
fff4
fff5
fff8
fff7
fff5
fff8
fff3
fff6
fff7
fffb
fff5
fff8
fff9
fff4
fff1
fff7
fff8
fff7
fff6
fff6
fff6
fff8
fffc
fff5
fff3
fff9
fff8
fff4
fff8
fff4
fff8
fffa
fff8
fff6
fff4
fff7
fff2
fff5
fff1
fffb
fff7
fffc
fff5
fff5
fff9
fff4
fff5
fff7
fff5
fff5
fff4
fff9
fff1
fff7
fff8
fffc
fff7
fff9
fff6
fff3
fffa
fff5
fff4
fff7
fff6
fff6
fff3
fff6
fff4
fff4
fff8
fffa
fff9
fff4
fffa
fff3
fff9
fff6
fff6
fff8
fff6
fff8
fff2
fff5
fff4
fff5
fff3
fff6
fffa
fff8
fff4
fff5
fff8
fff4
fff6
fff6
fff9
fff8
fff4
fff9
fff7
fff9
fff3
fff3
fffc
fffa
fff3
fff7
fff7
fff7
fff7
fff9
fff6
fff4
fffa
fff6
fff6
fffb
fff5
fff2
fff5
fff5
fff4
fff5
fff7
fff8
fff5
fff6
fffd
fff7
fff3
fff2
fff6
fff7
fff5
fff9
fff8
fff6
fff4
fff6
fffa
fff8
fff8
fff3
fff5
fff7
fff7
fff5
fff4
fffa
fff9
fff4
fff9
fff6
fff5
fffa
fff4
fffa
fff8
fff5
fff5
fffc
fff9
fff4
fffa
fffc
fff4
fff6
fff6
fff1
fff5
fff6
fff5
fff8
fff3
fffb
fff8
fff9
fff4
fff7
fff7
fff7
fff5
fffa
fff8
fff8
fff9
fff6
fff4
fff7
fff6
fff4
fff4
fff3
fff6
fff5
fffc
0005
fff5
fff6
fff1
fff9
fff3
fff0
fff4
fff9
fff6
fff6
fff6
fff9
fff6
fff7
fff5
fff7
fff8
fff9
fff4
fff2
fff9
fff8
fff6
fff8
fff6
fff3
fff4
fff5
fff3
fff6
0000
0002
fff4
fff6
fff6
fff5
fff6
fff6
fff7
fff5
fff9
fff6
fff6
fff7
fff8
fff7
fff4
fff7
fff5
fff4
fff5
fff3
fff8
fff8
fff8
fff9
fff8
fff3
fff8
fff4
fff9
fff4
0001
fffd
fffc
fff5
fff4
fffa
fff5
fff4
fffa
fffc
fff6
fff7
fff9
fff8
fff6
fffb
fff8
fff6
fffa
fff7
fff7
fff4
fff6
fff6
fff9
fff8
fff6
fffa
fff6
fff3
fff3
0004
ffff
0001
0000
fffa
fff7
fff7
fff5
fff0
fff8
fff4
fffa
fff6
fff9
fff8
fff2
fff8
fff3
fff9
fff9
fffb
fff5
fff7
fff3
fff6
fff6
fff6
fff9
fff4
fffa
fff5
fff8
0004
fffd
fffe
0000
ffff
fff1
fff8
fff5
fff4
fff7
fff4
fff7
fff6
fff4
fff7
fff7
fffb
fffc
fff8
fff7
fff6
fffa
fff7
fffa
fffb
fff8
fffd
fff3
fff6
fff3
fff6
fffe
fffe
fffe
fffd
ffff
0001
ffff
fff2
fff4
fff9
fff7
fff8
fff9
fff2
fff8
fff2
fff9
fff5
fffa
fff6
fff6
fffc
fff5
fff9
fff4
fffa
fff8
fff7
fff7
fff7
fff5
ffff
0001
ffff
0002
0002
0004
0004
0004
0000
fff4
fff6
fffb
fff7
fff8
fffb
fff6
fff4
fff8
fff7
fff2
fffc
fff6
fff4
fff4
fff5
fffa
fff8
fff4
fff8
fff9
fff2
0004
fffb
fffd
0000
fffb
0000
ffff
0000
fffd
0000
fffa
fff9
fff8
fff1
fff7
fff4
fff3
fff4
fff4
fff6
fff4
fffc
fff6
fffb
fff6
fff4
fff8
fff7
fff9
fff9
fff7
fff7
fffb
0002
fffe
fffb
fffc
fffd
fffe
fffc
0000
fffc
0005
fffd
fff7
fff7
fff6
fff0
fff8
fff4
fffb
fff6
fffa
fff9
fff5
fffb
fff4
fffb
fff6
fff3
fff4
fff6
0001
fffe
0000
ffff
0000
ffff
fffc
0000
0003
ffff
fffd
0000
0000
0000
fffe
fffb
fff7
fff6
fff7
fff4
fff8
fff7
fffa
fff7
fff4
fff4
fff4
fff5
fff5
fff3
fffb
ffff
ffff
0001
0001
ffff
fffe
ffff
0000
ffff
ffff
fffd
0004
fffb
0006
0003
0000
0002
0001
ffff
fffd
fff9
fff4
fff8
fff3
fff3
fff8
fff9
fff6
fffd
fffd
0000
0000
ffff
ffff
0002
0000
0003
0000
fffe
fffe
