0002
fffe
fffd
ffff
0002
0003
0004
0001
ffff
ffff
0002
003d
007d
ff91
ff1b
ffd7
ffc8
ff0d
0127
0039
00d4
0028
0001
0003
0002
fffe
0004
0001
fffd
0002
0003
ffff
ffff
fffe
0000
fffe
0001
0002
0002
0000
004c
017a
ff8c
ffc0
ff83
fff1
0033
0024
0005
ffc4
0016
ff4f
ffd0
fff5
0114
0054
fffd
0000
fffe
0003
0000
0001
fffd
0002
0000
0004
ffff
0000
0003
0001
0025
0073
ff10
0035
0050
0020
003a
ffba
000e
ffdc
0012
0007
ff83
ffd2
0016
0025
ffc0
0200
0116
0035
0006
fffe
fffd
0000
fffd
0000
fffe
0000
ffff
0001
0038
003d
ffe0
ffec
fff0
008c
ffe9
0036
fff1
ffdc
ffde
000a
0056
002f
ffbe
ffdc
ffd8
0028
0063
001b
ff19
ffed
00d4
0000
fffd
0000
0001
0001
fffc
0002
fffe
0001
008c
ff39
ffe5
ffb4
ff6a
000e
0002
0018
0040
004a
0052
0023
007d
0029
0036
ffe9
0011
ffef
0040
ff8b
ffcb
ffba
0223
00ee
0016
fffe
ffff
ffff
fffe
fffc
fffb
00d9
ffd1
ff51
ffb7
ff46
0051
0015
003f
ffc0
ffed
0007
0025
002b
ffcc
0061
0067
0059
0039
ffd1
ffcb
ffdd
ff85
ffef
ffe0
01f3
00e0
ffff
0001
0003
0000
fffd
005c
ff9b
ffe5
ffa5
fffa
fffe
ffd2
000f
0009
0009
0057
fff7
ffdc
0055
0012
0037
005e
ffe0
0010
ff99
ffb1
ff8d
0016
0021
ffd5
0076
0154
008a
ffff
0001
0003
ffff
0054
ffeb
0027
0002
0037
fff3
ffee
001f
0022
ffcc
0053
ffc9
ffe2
0055
0012
0020
ffb6
ff9e
ffe9
fff1
ffd2
fff6
ffe5
ffad
ffe6
ffe2
feb6
0118
0003
0001
0001
0054
fefb
005b
ffeb
0019
0005
001d
ffe7
0030
0031
ffcc
ffbd
0012
ffcb
0042
002a
0051
fff7
0027
ffca
002d
001b
ff9c
ff8b
ffb9
ffca
ffec
ff2d
01ad
004c
ffff
0005
0291
ff8a
0003
0052
000c
004d
0038
ffd8
0023
ffce
004b
0006
000a
0030
005e
0004
001e
ffa1
ffdb
fffa
0014
ffea
0003
ffaa
ff93
ffea
ffe3
ff78
006b
0189
0002
000c
fee7
0018
ffc7
0015
fff7
002f
fff7
006a
ffab
001a
001f
0093
002b
002f
0000
0000
ffe3
ffba
ff7c
fff9
0000
ffbf
000f
000d
ffb3
ffa4
ffa0
ff69
ffcd
022b
000a
02cd
ff6b
005e
fff3
0029
0049
0015
ffbc
ffea
0001
0002
003d
0092
001e
0085
ffce
0001
0056
0077
005d
004a
ff9e
fffa
ffce
ffc3
ffc2
ffa5
0002
ffea
ffcb
ff64
0160
ff74
ff92
0027
0014
0079
ffd9
ffbe
000a
0013
ffe4
002d
0066
0005
fffa
0072
0060
ffec
ffef
008d
004a
001f
ffac
0019
ffc2
ff99
fff2
ffa3
0023
ffbf
ffda
ffa8
0235
fed2
000d
ffa0
0028
001f
005e
0013
0070
ffcf
000c
0010
002f
00b5
003f
0086
007b
009f
008d
0068
0060
fff6
0044
005d
0026
fff3
ffab
ffc5
ffc0
000a
ffcc
ff95
0036
0037
ff91
ffed
0016
fff3
ffd5
000f
fff5
fffb
000d
0034
001d
0037
001b
0039
004f
000f
0030
002d
003e
000e
0044
002c
ffae
ffba
ff93
0010
ffeb
ffe9
ff96
ffd1
fec8
ffd8
ffd2
002e
0034
0018
ffc0
ffe8
0036
0039
000a
0032
009f
001a
fff1
00ab
ff97
ffeb
0058
ffb0
ffeb
0023
0047
0018
ffe8
ff9f
fff4
ffe3
ff67
fff3
ff99
ffcb
ffa9
0053
ffe1
0014
0099
ffc7
0015
fffe
0033
0004
002b
007e
0073
fff9
003d
0046
002e
0055
0048
003a
ffcc
0029
001a
0024
008f
ffac
003e
ffd2
ffe3
ffc4
ffe9
ffb6
ff83
ff74
0033
0026
0049
ffed
fff3
0013
002e
004c
002a
001c
fffe
0025
ffd3
0051
fffb
0075
0074
0080
001b
001c
0040
ffdd
ff5f
ff93
fff9
ff9f
0005
ffb5
ff8f
ffdb
fef5
fee6
0026
ffd6
0051
0030
0003
ffef
ffee
003b
0020
001e
0043
007b
0005
004b
0090
0048
0037
0067
00da
0042
004f
0036
001e
000e
ffd8
0045
fffb
ffc1
ffbd
ffcf
0129
ffab
ffc7
0035
005d
0071
ffae
004d
fff3
fffc
004b
003a
fff8
0065
0096
009b
0076
004d
007f
0050
006b
006c
0084
0060
0003
0063
0046
ffc2
fff5
0029
ffda
ffbc
00d7
01f6
001f
004c
0003
005d
0034
0020
fff4
0061
0060
ffc1
006b
0075
005c
005b
0032
002d
004f
0061
0022
002c
006c
ffd3
0007
0021
0001
0041
fffa
ff7b
fff5
ffe6
00f1
ffeb
fec5
0011
005d
003e
ffed
ffb9
000f
0093
0022
0033
0062
0054
007c
0080
fff7
005a
0028
0079
0040
ffc4
0011
0061
0033
ffe8
004d
001c
005d
ffff
fffb
feb4
0011
0000
ff68
0028
0020
0035
000d
002e
00d4
008d
0008
000a
0030
fffc
ffbe
ffdc
0090
000c
0070
0065
0007
0058
0015
0026
fff2
ffc8
002c
ffe4
ffd3
ffb7
ffa6
00f0
ffff
ffff
ff9a
ff88
ffda
0006
fffe
fff0
ffde
0086
0056
0052
002b
fff4
ff67
fff6
007e
0042
ffe7
0021
ffbb
ffd3
ffa4
ffc7
0028
fff8
0059
fff8
fff5
ffe6
ff66
0045
0000
fffe
fffc
fe3e
ffba
0077
ffcc
0016
005d
0001
002d
0072
0058
0083
ffd0
ffcf
fffb
ffb4
0042
002b
004d
ffea
0007
ff36
ffca
0050
0082
ffcb
000b
ff92
ffde
0001
fffa
0002
0003
00a4
ff16
00a3
005a
0057
0041
0053
0085
0044
fffb
0093
0054
0060
0039
002d
0098
0062
0022
002d
0085
004c
002c
ffa8
0029
000c
0068
00d6
006b
fffd
fffe
0003
0000
0000
00f8
ffc4
fffb
ffd8
0077
007f
005b
ffe3
001d
ffc3
0018
003d
008d
006e
0000
0022
003b
ffe0
ff9d
0029
003d
fff0
ffe2
ffd1
ff45
00cc
0000
0002
ffff
fffb
0001
0002
ffd7
0020
ff80
0085
fff1
0054
0050
0007
001b
0014
ffd3
0036
0085
ffb6
0023
007c
0041
001b
0068
000c
001f
0025
0089
016e
000a
0037
fffc
0002
0001
0000
0004
0000
0002
fffe
ff9d
fe69
00d6
0002
0060
0004
ffff
0013
0069
fff8
00ab
001c
0061
004e
0059
008c
0033
005a
004a
0015
ff87
0088
fffe
0002
fffc
0001
0001
0002
0002
fffd
ffff
ffff
fffd
005a
012d
ff2d
ffea
005f
00ad
ffe6
001c
ffdf
0039
ffa2
0067
0067
0031
0045
0041
0006
ff95
fffa
ff4a
0001
fffe
0001
ffff
0005
0003
0003
0000
fffe
0001
0006
0007
0001
ff27
ff70
fd85
fff1
ffe0
ffd1
0011
007e
0044
003c
0054
0090
000d
ffa6
ffa2
fe12
ffbd
0000
0001
fffc
0002
0000
0003
0000
fffe
fffe
0002
ffff
0006
0002
0001
0003
0002
fffe
0002
ff01
ff45
fd45
00b5
0084
003a
00a3
00cc
fed1
fd91
ff3c
ff21
ffff
0002
fffe
0000
fffb
0004
0003
0003
0001
0002
