0000
ffff
0004
ffff
fffe
0001
0003
fffe
fffb
0003
fffd
0001
0001
0001
0000
fffd
0002
fffa
0002
fffd
ffff
fffc
fffd
fffb
fffd
0002
fffe
fffd
ffff
0000
0000
0005
fffc
fffb
0004
0004
fffe
0004
0000
fffb
0001
0001
0001
0001
ffff
ffff
ffff
fff9
0002
0003
0000
0000
ffff
ffff
fffc
0002
fffd
0000
0000
ffff
fffe
fffd
fffe
0000
0000
0001
fff9
0001
0000
fffc
ffff
0004
ffff
fffe
ffff
0001
0005
fffd
ffff
fffc
fffd
fffd
fffd
fffc
fffe
0002
0005
fffd
fffd
fffc
ffff
0002
0001
fffe
0003
fffe
ffff
0002
fffc
0002
fffe
ffff
fffe
0000
fffc
0002
fffe
fff9
0000
0000
0001
fffe
fffc
ffff
0000
0000
fffc
fffc
0002
fffd
0000
0002
0000
0002
fffd
0005
0001
0001
fffd
ffff
0001
fffd
0000
fffd
0000
0000
0000
fffd
ffff
0000
0000
fffd
fffc
0002
0000
fffd
0001
fffe
0000
fffb
0001
0001
0001
ffff
0000
0000
ffff
fffe
ffff
0002
0000
fffc
fffd
0001
fffd
0000
0003
0004
fff8
0000
ffff
fffb
fffd
fffd
0000
0002
0001
0002
fffd
0004
fffd
ffff
0001
fffe
0000
fffc
0000
fffc
0002
0000
0001
ffff
0002
0001
0003
fffe
fffd
ffff
0002
fffd
0000
0002
0002
0000
fffd
0002
fffd
0000
0003
0004
0006
ffff
fffe
ffff
0002
ffff
fffd
0000
fffd
0006
0002
ffff
fffe
0000
fffe
0001
ffff
fffc
0001
0003
fffa
0000
fffc
fffd
ffff
fffe
fffe
fffe
0000
ffff
fffe
fffe
0000
fffc
0004
0000
0000
0003
0002
ffff
ffff
0001
ffff
fffc
0004
fffd
fffe
0005
0004
ffff
fffe
0001
fffd
0000
fffe
0003
fffa
0003
fffb
fffe
0001
0002
fffd
0001
0002
0001
0000
0000
fffe
0004
ffff
0001
ffff
0000
fffc
0000
0002
fffd
ffff
fffd
0000
0000
0000
ffff
fffd
0000
0000
0002
fffe
0001
ffff
fffc
ffff
0000
0000
0000
fffd
ffff
fffd
0004
0000
fffa
fffd
fffd
fffe
ffff
0001
0000
0002
fffc
fffe
0002
fffe
fffc
fffd
fffc
0003
fffc
0001
0000
fffe
fffe
fffe
fffe
0004
0002
0001
fffc
0002
0002
0000
0000
0000
fffe
fffe
ffff
fffa
0000
ffff
0002
ffff
0003
fffc
0001
0003
0002
ffff
0001
ffff
fffd
fffc
0001
0005
0002
fffc
0005
0003
0001
fffe
0000
ffff
fffe
fffe
ffff
0000
ffff
fffd
fffd
0000
0000
fffd
ffff
fffe
ffff
0002
0000
0000
0001
ffff
0000
fffe
0002
ffff
fffe
0003
0001
0001
fffe
0001
ffff
fffe
ffff
ffff
ffff
fffd
0002
ffff
0002
fffd
fffd
fffb
0003
0001
0001
ffff
fffe
fffe
fffb
0001
ffff
fffe
fffa
0002
0001
0001
0000
ffff
0004
0002
fffc
fffd
0001
0001
0000
0002
ffff
fffc
ffff
0000
0001
0000
fffe
fffa
0001
0000
0001
ffff
ffff
0001
fffe
0000
0000
fffc
fffc
ffff
0001
fffe
fffd
0001
0003
0001
ffff
ffff
0001
0003
0000
fffc
ffff
fffd
fffd
0001
ffff
0001
fffe
fffc
0002
0001
0004
0000
0000
ffff
ffff
fffb
fffa
0001
fffc
0001
fffc
fffd
0004
0004
fffb
0000
fffd
ffff
fffc
fffc
ffff
fffb
ffff
0000
0001
0002
0001
ffff
0000
fffb
0002
0002
0000
fffc
0001
0001
0000
fffc
0001
fffd
fffd
0000
0002
0003
ffff
ffff
fffd
fffb
fffc
0004
0001
fffe
0001
ffff
fffe
0001
0003
fffc
0003
fffe
fffe
0002
ffff
0002
0000
fffb
ffff
fff9
ffff
fffe
0000
ffff
fffc
fffe
ffff
ffff
fffd
ffff
0003
0001
fffe
0001
0000
0002
fff9
0003
fffe
fffd
ffff
fffd
fffa
0002
fffd
0004
0002
fffe
fffe
0000
0000
fffc
0001
0003
0002
ffff
0000
0002
0001
fffe
0000
0001
fffd
0000
fffc
0000
ffff
0000
ffff
ffff
0001
fffd
fffc
0001
0001
0001
fffe
fffd
0000
fffe
ffff
fffe
ffff
0000
fffb
0001
0002
ffff
fffc
fffb
ffff
0002
0000
0001
0001
0000
0001
ffff
fffe
fffd
0003
fffa
fffe
0003
fffd
0001
0000
0001
0000
fffe
fffe
0003
ffff
0002
fffe
fffe
0002
fffe
fffd
fffe
0001
fffd
ffff
0000
ffff
0001
0001
0000
ffff
0000
0001
fffd
0002
ffff
0001
0000
0004
0001
fffe
ffff
0000
0003
0000
ffff
fffb
0000
fffe
0003
fffe
0000
ffff
0006
fffe
0003
0001
0000
ffff
0003
0000
ffff
0001
0000
0000
0000
fffd
fffe
fffb
fffe
fffd
0000
fffc
0000
0000
fffc
fffe
0001
fffc
fffe
0000
0000
0000
fffd
0001
0000
fffd
0002
fffa
fffa
0004
0002
ffff
0002
fffd
0006
fffe
fffd
0001
0003
fffd
ffff
fffd
fffe
fffd
0002
0003
0002
fffc
0000
fffd
0004
ffff
0001
0003
0000
0001
0001
0000
0000
fffd
0003
fffe
ffff
0003
0001
0000
ffff
fffc
fffc
ffff
ffff
0004
0004
fffd
fffe
fffe
fffc
fffd
0001
0000
0002
ffff
fffe
0002
0004
0000
0000
0000
0000
0001
fffe
0000
0000
fffb
fffe
0003
ffff
fffc
0007
fffc
fffc
fffe
0004
0003
0002
fffe
fffe
0000
0002
0003
0003
fffe
0001
fffc
0000
0004
0000
0004
fffe
0001
0002
0000
0000
0003
0000
ffff
0001
0005
0000
0000
fffe
0002
fffb
0002
0002
fffe
0001
fffd
0000
ffff
ffff
fffa
0000
fffe
ffff
fffa
0004
fffe
fffa
fffc
0003
0000
0005
0000
fffc
0002
fffe
0001
fffc
0003
0000
0000
0000
0001
0000
0002
fffb
ffff
0002
0003
fffe
0004
ffff
fffe
fffd
0001
0002
ffff
ffff
fffc
0000
fffe
0002
0005
fffe
0006
0001
0003
0002
fffe
0004
fffc
0000
ffff
fffd
fffc
0002
0000
0001
0000
fffe
0000
0002
0001
ffff
fffc
0000
fffc
fffd
0002
0002
fffe
0001
0001
fffe
ffff
0001
0003
0004
ffff
ffff
0001
0002
fff9
ffff
0001
ffff
ffff
ffff
fffe
ffff
ffff
ffff
fffe
fffe
0000
fffd
0000
fffb
0003
0002
0001
0002
0002
0001
0003
0006
fffd
fffe
fffe
fffd
0003
ffff
0001
fffe
0000
0000
fffc
0000
fffc
0001
fffe
ffff
0001
fffd
0000
fffc
fffb
0003
0003
0001
ffff
0005
0003
0001
fffa
fffe
ffff
0001
0003
0005
ffff
ffff
0002
0002
0004
fffe
ffff
fffe
0000
fffe
0002
fffc
ffff
ffff
0000
fffd
0003
0004
fffd
fffc
0001
0001
fffc
0001
0002
0000
fffe
fffb
ffff
0002
0002
0002
0002
0003
ffff
0002
0005
fffc
ffff
0003
0001
fffc
0003
0004
fffe
fffe
fffe
fffe
0000
ffff
fffc
fffd
0001
ffff
0000
0000
0002
fffe
fffe
