fffd
fffc
0001
0002
0000
ffff
ffff
0001
0006
0004
fffc
fffe
ffff
fffa
fff8
fff4
fff6
fff2
fffa
fffd
fffe
0002
0006
0001
ffff
0000
0000
0001
0000
0000
0001
0002
fffe
0002
0003
0002
0004
fffd
ffff
fffc
0000
fffa
fff9
fff9
fff8
fff8
fff7
fff7
fff8
fff3
fff4
fff7
fff3
fff3
fff9
fffe
fffe
fffe
0001
0005
0003
0005
0000
fffb
ffff
0000
0004
0000
0000
0001
0000
fff9
fff9
fff5
fff8
fff4
fff5
fff8
fff3
fffb
fffc
fffd
fff5
fff5
fff2
fff7
fff3
fffb
fff9
0008
ffff
0005
fffe
0002
0002
fffe
0001
0002
fffe
0001
ffff
fffe
fffa
fff7
fff7
fff7
fff8
fff3
fff5
fff1
fff5
fff5
fffb
fff5
fff7
fff8
fff7
fff4
fff4
fff8
fff6
fff7
0002
0000
0000
fffc
0000
ffff
0001
0000
0001
0003
ffff
fff6
fff4
fff7
fff7
fff5
fff8
fff2
fff7
fff9
fff8
fff6
fffb
fff6
fff9
fff5
fff6
fff3
fff5
fffc
fff5
fffa
fff8
0000
fffc
ffff
0002
0000
fffb
ffff
0001
0001
fff9
fff4
fff7
fff8
fffb
fffa
fffb
fff9
fff3
fff4
fffa
fff3
fff1
fff3
fff7
fff4
fff3
fff7
fff7
fff6
fff9
fff6
fffb
fff9
0000
0003
0001
fffe
0000
fffa
0001
fff6
ffef
fff5
fff6
fff6
fff4
fff6
fffc
fff8
fff7
fff7
fff3
fff4
fff9
fff4
fff6
fff8
fff8
fff5
fff4
fffa
fffa
fff6
fff7
fff5
fff4
fffc
0002
0005
0004
ffff
fffc
fff6
fff5
fff3
fff7
fff8
fffc
fff7
fff5
fff2
fff7
fff6
fff6
fffb
fff2
fff8
fff4
fff9
fffb
fff8
fffc
fffc
fff9
fff9
fff7
fff6
fff9
fffc
fffe
0000
0002
0005
fff4
fff6
fff6
fff7
fffc
fff9
fff6
fffb
fff6
fffa
fff6
fffa
fff6
fff6
fff6
fff5
fffa
fff6
fff4
fff3
fff6
fff4
fff5
fff9
fff4
fff6
fff5
fff7
fffd
0005
0001
fffc
fff8
fff6
fff5
fff7
fffa
fff7
fff7
fff7
fffb
fff1
fff6
fff2
fff5
fff6
fff4
fffa
fff7
fff5
fffb
fff7
fff2
fff5
fff1
fffa
fff6
fff7
fff2
fff7
fff4
0001
0001
fff1
fff4
fff0
fff5
fff5
fff3
fffc
fff9
fff6
fff7
fff3
fff7
fff6
fff7
fff8
fff4
fff6
fff8
fff4
fffa
fff6
fffb
fff5
fff7
fffb
fff7
fffa
fff5
fffa
fff2
0001
ffff
fff6
fff2
fff7
fff1
fff1
fff6
fff7
fff5
fff9
fff4
fffa
fff9
fff8
fff3
fff5
fff6
fff3
fff7
fffa
fff5
fff8
fff3
fff8
fff9
fff6
fffb
fff8
fff4
fff4
fff6
fffd
fff9
fff9
fff3
fff8
fff2
fff8
fff7
fff2
fff3
fff8
fff7
fff2
fff8
fff5
fff1
fff6
fffa
fff6
ffef
fff8
fff8
fff4
fff5
fff6
fff8
fff7
fff9
fff6
fff8
fff6
fff7
fffa
fffa
fff7
fff4
fff8
fff8
fffd
fffa
fff4
fff7
fff8
fff7
fff6
fff9
fff7
fff7
fff4
fff3
fff5
fff5
fff8
fffa
fff8
fffa
fffa
fff7
fff7
fff5
fff2
fff7
fff3
fff5
fffb
fff8
fff7
fff8
fff6
fff9
fffc
fff6
fff6
fff7
fff4
fff2
fff9
fff9
fff2
fff1
fff6
fffc
fffc
fff2
fff5
fff5
fff4
fff9
fff3
fff8
fff8
fff4
fff1
fff8
fff6
fff9
fff5
fff5
fff3
fff6
fff6
fffc
fff8
fff4
fff8
fff4
fff7
fff4
fff4
fffa
fff5
fff7
fff9
fff8
fff7
fff6
fff5
fff7
fff4
fff5
fff8
fff5
fffa
fff5
fff7
fffb
fff6
fffb
fff9
fff7
fff9
fffa
fffa
fff8
fff4
fff9
fff5
fff1
fff9
fff6
fff5
fff8
fff5
fff5
fff4
fffa
fff5
fffb
fff7
fffb
fff5
fff5
fff7
fffa
fff8
fff8
fff5
fff9
fff3
fff5
fffa
fff2
fff7
fff9
fff5
fff4
fffc
fff4
fff4
fff8
fffb
fff5
fff5
fffb
fff7
fff3
fff5
fff2
fff7
fffc
fff8
fffa
fff0
fff5
fff7
fff9
fffb
fff8
fff4
fff5
fff8
fff3
fff7
fff8
fff4
fff5
fff0
fff8
fffd
fffc
fff8
fff8
fff2
fffc
fff4
fff2
fff6
fff4
fff0
fff6
fff5
fff7
fff8
fff7
fff7
fff9
fffb
fffa
fff9
fff4
fff4
fff7
fff7
fff7
fff7
fff8
fff4
fffd
fff0
fff5
fff5
fff1
fff3
fff8
fff7
fff4
fff1
fff9
fff9
fff6
fff6
fffa
fff8
fff7
fff8
fff7
fff7
fff6
fff7
fff3
fff7
fffb
fff8
fff8
fffa
fffb
fffa
fff9
fff2
fff9
fff5
fff8
fff6
fff6
fff6
fff9
fffb
fff6
fff6
fff5
fff7
fff8
fffb
fff5
fffb
fff9
fff5
fff7
fff5
fff8
fff8
fff6
fffa
fff8
fff8
fff9
fff2
fff5
fff7
fffe
fff5
fff4
fff8
fff8
fff9
fff4
fff6
fff6
fff6
fff5
fff6
fff4
fff4
fff2
fff6
fff6
fff7
fff9
fff3
fff5
fffb
fff8
fff7
fff2
fff9
fff8
fff9
fffa
fff9
fff8
0001
0000
fff7
fff6
fff8
fff9
fff7
fff6
fff6
fff5
fff2
fff0
fff5
fff7
fff6
fff4
fff3
fff3
fffa
fff8
fff6
fff3
fff4
fff9
fff6
fff4
fff8
fff5
fff5
fff5
fff6
fff2
0004
0002
0005
fff9
fff3
fff9
fff9
fff7
fff7
fff4
fff5
fff3
fff6
fff9
fff6
fff6
fff6
fffa
fffd
fff8
fff4
fff9
fff7
fff4
fff6
fff5
fff7
fff2
fffc
fff6
fffb
ffff
fffb
ffff
0001
fffd
fff9
fff5
fff8
fff7
fff4
fff9
fff4
fff9
fff6
fff5
fff8
fff4
fff5
fff7
fff8
fff6
fff7
fff7
fff8
fff8
fff7
fff5
fff4
fff9
fff1
fffc
fffb
fffa
0001
0001
0000
0003
fff5
fff7
fff4
fff5
fffa
fff4
fff7
fff6
fff4
fff8
fff8
fff7
fff9
fff4
fffa
fff3
fff5
fff6
fff5
fff8
fff9
fff8
fff7
fff4
fff6
fff5
fffe
fffe
fffe
fffd
fffe
fffe
0003
fff7
fff6
fff5
fff7
fff8
fff8
fff3
fff5
fffc
fff8
fff3
fff8
fff3
fff7
fff6
fff9
fffb
fff6
fff6
fff7
fff6
fff4
fffd
fff7
fffe
ffff
0001
0000
0000
ffff
0001
0005
fffa
fff5
fff7
fff4
fff8
fff3
fff6
fff4
ffff
fff9
fff6
fff7
fff3
fff9
fff3
fff4
fff8
fffa
fffa
fff7
fff4
fff8
fff5
fffb
0003
0002
0005
0002
0001
ffff
fffa
0003
0003
ffff
fff5
fff7
fff4
fff7
ffef
fff7
fff6
fff6
fff9
fff4
fff3
fff3
fff7
fff6
fff2
fff9
fff6
fff9
fff4
fff9
fffe
0002
fffe
0004
0002
ffff
fffe
0001
ffff
fffe
fffe
ffff
0002
fff7
fff6
fff9
fff4
fff5
fff2
fff7
fff4
fff5
fffb
fffa
fff6
fff7
fff5
fff6
fff9
fff9
fff9
ffff
0001
fffe
0004
fffe
ffff
fffd
0001
fff9
0004
fffd
0002
0001
0000
ffff
fff8
fffe
fff8
fff6
fff3
fff6
fff1
fff8
fff4
fff4
fff4
fff8
fffb
fff4
fff6
fffe
0002
fffd
0004
0000
0000
0003
fffd
0002
0003
fffc
0005
0004
0000
0002
ffff
fffe
0004
0000
0000
fffd
fff6
fff5
fff3
fff2
fff8
fff2
fff7
fff1
0000
0001
fffc
0000
0000
0002
0001
ffff
0002
fffd
0000
ffff
