0000
0001
0000
0000
fffb
fffe
0001
fffe
0000
fffc
0002
fffd
0000
fff2
fff8
fffa
fff5
fff7
fffe
fffe
0000
0002
0001
fff9
fffd
fffc
ffff
fffe
fffd
0002
ffff
fffc
0004
0003
0003
0000
0004
0003
0005
fffd
fff9
fffb
fff8
fff8
fff8
fff7
fffe
fffe
fff8
fff9
fff9
fffa
fff9
fff8
0003
0005
ffff
0000
0000
0003
0002
ffff
0001
0000
0002
0000
0000
0001
0002
ffff
0001
fffc
fff3
fffc
fffa
fff9
fff9
fffa
fffb
fff5
fff6
fff7
fffa
fff9
fff7
fffc
fffb
fffe
0003
0000
0007
0001
0000
0001
0002
ffff
fffd
0004
fffe
fffd
0003
fffd
0000
fffa
fff8
fffb
fff8
fff6
fff6
fffa
fff8
fffa
fffb
fff7
fff9
fffd
fffc
fff8
fffb
fff6
fffd
0000
0001
0001
0003
0000
0000
0001
0002
0004
0000
fffd
ffff
fff6
fff9
fff5
fff4
fffb
fff9
fffa
fff7
fff8
fffb
fff8
fffa
fffa
fff7
fff6
fffa
fff9
fff8
fff8
fff9
fff6
0000
0004
fffd
0002
0006
ffff
fffd
fffb
0004
0002
fff5
fff8
fff6
fffb
fff9
fff5
fff8
fff5
fffb
fff8
fff8
fff8
fff6
fffa
fffa
fff9
0001
fffc
fff8
fff7
fff6
fff5
fff7
fffc
ffff
0003
fffa
0001
0001
ffff
fffd
fff9
fffb
fff6
fffc
fff8
fff9
fffb
fff7
fffd
fffa
fff7
fff8
fff9
fffa
fffc
fff8
fffa
fff9
fff6
fffc
fffa
fff7
fff7
fff6
fff8
fffe
0003
0000
0001
0008
0000
ffff
fffe
fffa
fff4
fffa
fff8
fffa
fffa
fff5
fffa
fff9
fff6
fffa
fff9
fff8
fff2
fff5
fffa
fffc
fff8
fff9
fff8
fff5
fff6
fffa
fffb
fff5
ffff
0003
0001
ffff
0001
fff5
fff7
fff5
fffb
fffb
fff6
fff7
fffc
fff3
fff8
fff8
fff5
fff6
fff9
fff8
fffc
fffe
fffc
fff8
fff5
fffc
fff9
fff8
fff6
fff8
fff7
fff8
fff8
fffe
0001
ffff
fffe
fff9
fff7
fff9
fff7
fff5
fffd
fff5
fff8
fffa
fffb
fff8
fffa
fff9
fff9
fffa
fff7
fff7
fff8
fffa
fff9
fffa
fffa
fff8
fff5
fff5
fff5
fffc
fff4
fff8
0000
0000
fff8
fff4
fff8
fff7
fff7
fff6
fffc
fff6
fff8
fff5
fff8
fff8
fffc
fff8
fffd
fff7
fff9
fff9
fff6
fff5
fff4
fff8
fff4
fff8
fffa
fff7
fff7
fff4
fff6
fff9
fffa
fffb
fff6
fffc
fffa
fff5
fff7
fff9
fffb
fff4
fff5
fffb
fff8
fff7
fff9
fff9
fff2
fff5
fffc
fff4
fff7
fffa
fff6
fff6
fff9
fff7
fff6
fff9
fff8
fffd
fffa
fffc
fff7
fff8
fff9
fffa
fff4
fff9
fffa
fff7
fff5
fff9
fff6
fffb
fff6
fff9
fffe
fff9
fff9
fffd
fffa
fffd
fffa
fffe
fff6
fffd
fff8
fffe
fff6
fffc
fff6
fff7
fffe
fff8
fffd
fff7
fffa
fff9
fff6
fff7
fff4
fff6
fff8
fff8
fff7
fff9
fffa
fffc
fffa
fffc
fffc
fff9
fffd
fff8
fff9
fffb
fff8
fffb
fff8
fff8
fff7
fff8
fff5
fff9
fff4
fff7
fffa
fff6
fff8
fff8
fff9
fff9
fff7
fff5
fff8
fff8
fff6
fff8
fffb
fff9
fff1
fffa
fff9
fff8
fff8
fff7
fff7
fff6
fffa
fffc
fffa
fffa
fffa
fff9
fff5
fffc
fff6
fff9
fff9
fff9
fff7
fff6
fffd
fffb
fff9
fff6
fff6
fffb
fff7
fff9
ffff
fff8
fffb
fffb
fffa
fffa
fffd
fff7
fff8
fff7
fffe
fffc
fff8
fff8
fff4
fff5
fffd
fff5
fff7
fff4
fff8
fff3
fffc
fff7
fff9
fffb
fff7
fffa
fff7
fff9
fff9
fff8
fff4
fff4
fff7
fff6
fff6
fff9
fffa
fffc
ffff
fffb
fff7
fff8
fffc
fff9
fffa
fff7
fffc
fffa
fffa
fffa
fff9
fff3
fff8
fff7
fff5
fff8
fff9
fff9
fff4
fff9
fff6
fff4
fff9
fffb
fff7
fff8
fffd
fff5
fffd
fff8
fff4
fffc
fffa
fffd
fff9
fff8
fff8
fff6
fff6
fffa
fff8
fff7
fff6
fffd
fff8
fff6
fffd
fffb
fffb
fff5
fff6
fff9
fff8
fffd
fff4
fffa
fff3
fffb
fffa
fff9
fffc
fffa
fff5
fff8
fff7
fffd
fffd
fffb
fff8
fffc
fff8
fff9
fffa
fffa
fff9
fffb
fffe
fff9
fff6
fff2
fff8
fff8
fffa
fff8
fff9
fff7
fff3
fff4
fff6
fff8
fff5
fff8
fffc
fffd
fff4
fff8
fff9
fff9
fffa
fff9
fffa
fff7
fffb
fff8
fffb
fffe
fffc
ffff
fffa
fff6
fff5
fffa
fffb
fff9
fff7
fff7
fff8
fff8
fffd
fffa
fff6
fff5
fff9
fffa
fff7
fffa
fff8
fff5
fff6
fff9
fff5
fff6
fff7
fffa
fff6
fff8
fff8
fff6
fffd
fffe
fff7
fff5
fff7
fffa
fff7
fffa
0000
fff9
fffc
fff9
fff6
fffa
fffd
fff7
fff9
fff8
fffa
fff9
fffe
fff6
fff7
fff7
fffb
fffc
fff6
fff6
fff9
fff4
fff5
fff9
fffe
0002
fff7
fffe
fffc
fff6
fff7
fff5
fffc
fffb
fff9
fff6
fff8
fff6
fffb
fff8
fffb
fff9
fff9
fffa
fff6
fffc
fff7
fff6
fff9
fff8
fff6
fffb
fffa
fff7
fffa
0002
0001
0002
0000
fff9
fff8
fffc
fffa
fff4
fff6
fff7
fff8
fff9
fff7
fff6
fff9
fff7
fff6
fffb
fff8
fff2
fffd
fff8
fff4
fffd
fffa
fff8
fff6
fff7
fffa
fff9
fff6
0003
fffd
fffc
fffa
fffb
fff4
fff5
fff7
fffe
fffb
fff8
fff7
fffa
fffb
fff7
fffb
fffc
fffc
fffa
fff8
fff6
fffa
fffb
fffa
fff4
fff9
fffa
fffd
fff9
fffa
fff6
0000
fffd
0000
0001
fffc
0002
fff9
fff4
fffb
fff8
fffa
fffa
fff7
fffc
fff9
fffb
fff8
fff3
fffd
fffa
fff8
fff8
fffa
fff8
fff5
fff7
fff6
fff6
fffa
fff9
fff8
fffe
fffa
fffc
0001
fffc
0001
0000
fffe
fff5
fffb
fffb
fff9
fffa
fffa
fff7
fff8
fff5
fffa
fff6
fff6
fff7
fffa
fff9
fff8
fff8
fff9
fff7
fff8
fff6
fff9
fffa
fff9
ffff
0004
fffd
0002
0000
0001
fffa
0001
0000
fff9
fffb
fff7
ffff
fff8
fffc
fff5
fff5
fff7
fff7
fffa
fff9
fffc
fff7
fffb
fffd
fffe
fffa
fff9
fffa
fffa
fffd
fffa
0005
0007
0000
0000
0002
0000
0001
fffd
ffff
fffc
fffa
fff7
fff9
fff6
ffee
fffd
fff6
fff9
fff7
fffa
fff9
fffa
fffa
fff7
fffc
fffb
fff8
fffa
fffc
0000
fffc
0004
0006
0000
0001
fffe
0001
0002
fffe
0002
0003
fffd
fffa
0000
fff8
fffa
fff3
fff7
fff7
fff7
fffa
fff9
fff8
fff3
fffa
fffd
fff8
fff7
fff7
fffa
ffff
0001
ffff
0001
0005
fffb
0001
0001
0004
fffc
0000
0002
0002
0000
0000
fffd
0001
fffa
fff8
fff6
fff8
fffa
fff9
fff7
fffa
fff9
fffa
fffb
fffd
fff9
fffa
fffb
0002
fffe
0001
fffe
fff6
0001
ffff
0006
fffe
0005
0001
fffe
fffe
ffff
0001
ffff
fffd
0004
ffff
0003
fff7
fff7
fffa
fff8
fff7
fffa
fff5
fffc
fffe
fffd
0001
ffff
0002
fffd
0001
fffd
0002
0003
0004
0002
