fffe
fffc
fffe
ffff
0001
fffd
fffe
fffe
0002
0003
ffff
fdd7
fe75
ffe9
0105
0047
00f2
00ad
fdfe
fe8f
fcf5
ffe0
0003
fffe
0003
0002
0001
fffe
0001
0003
fffd
0002
ffff
0001
0001
0001
0004
ffff
ffff
0001
fd50
ffcd
00b4
0028
00ef
0009
ffc6
002a
000d
00bb
004b
00bb
0020
003a
01a9
fcfc
0002
0005
0000
fffd
0004
0006
fffd
0000
fffd
0001
ffff
0002
ffff
0003
ffc7
ff9c
0298
ff4a
ffe0
002f
001a
0010
ffea
ffda
0064
001e
00b8
00b9
001d
002d
ff82
fff8
0051
ffb4
0001
ffff
0002
ffff
0001
ffff
fffa
ffff
0002
0001
ffe4
fd97
fd12
00e5
ffe6
ffe4
0049
0024
0054
0046
ffe2
0068
000d
00ab
0034
0002
ffbd
00b0
ffef
0000
008a
0039
fd1f
0002
ffff
fffb
0002
fffe
0002
0004
0000
0000
fde8
0345
0021
00d2
0084
002c
ff83
0070
ffa7
ff69
ffee
ff92
ff1a
000d
ffa1
ffd0
0006
ffe6
fff7
009a
00bd
ffeb
0072
fe15
fff6
0002
fffd
0001
0003
0002
0001
fdb5
009a
ffbf
008d
007d
ffe6
ff9c
0009
0077
0020
ff35
0007
ff6e
ffe5
ff0d
ff87
ffcc
ffdf
ffbe
007e
007a
00a2
ffd6
ffc5
ffe5
fce8
fffb
0002
ffff
fffe
ffff
ff94
00f4
003e
002d
ff9a
ffb6
0018
ff98
ff63
ff3a
ffce
fff0
ff6f
ff8a
fff3
ff6a
ffdf
ffba
ffb3
0011
0002
0055
005c
00a6
ff7c
00b5
ffb3
ff69
0005
0000
0000
fffa
00e9
00b1
ff84
ff94
ff4e
ffee
ff44
ff3d
ff18
ff5c
ffad
ffc5
007b
ff9d
ffb8
ff6b
003b
000f
ffe2
ff36
ffd5
ff8b
fff9
005d
0014
ff90
fee4
fe7b
fffd
fffd
ffff
fdd8
00b8
ff2f
ffd8
ff5f
ffcf
ffc5
0037
0003
ff8c
ffb2
ffc4
fec9
ffae
ffd0
ff9c
ff90
ff7f
ff7d
003b
ffc4
fff7
ffc0
0080
0027
005f
004c
fff2
fee8
fe06
ffff
0000
0074
0067
005c
ffff
0019
fef0
ff3c
fecc
ffdd
ff15
ff88
ff3a
feec
fef1
ff76
ffd2
0001
ffa1
0032
ff7a
ffa6
ff56
0004
008c
0091
005a
005a
fff6
ff6e
0055
0001
ffef
0240
fff5
0037
ff8c
ff50
ffb9
0016
ff15
ff4b
ff61
ff3e
ff4c
feb9
ff81
ffe3
003a
002e
005a
0077
0063
ff70
0067
ff65
0062
00ef
ffc9
013d
012c
009e
0002
fff5
fc07
ff8e
ff52
fffb
ff25
ff29
0036
002e
ff23
ffbb
ff28
ff35
feb8
ff7a
ff91
004a
ffdd
ffba
fefb
0009
ff33
fff0
fffe
ff9e
010a
004b
ffea
0072
0054
008d
00e7
fcc6
01a0
ffb7
004d
004d
ffec
ff45
ffab
fedd
ffa8
ffef
ff55
fee2
ff64
0004
ff72
ffc2
001d
ffe0
ffa7
ffec
ff4b
ffc3
ff83
00a2
0010
003e
0011
0016
0122
ffb3
009f
fe2b
fe08
fffd
005e
ffc8
ff8b
ff7d
ffe0
ff38
ff4f
ff49
ff77
0033
ffb1
ffcb
ff17
ff7b
ff19
ff3a
ff96
ffcb
ffcb
ff6a
ff78
ff8a
ffeb
00a6
004d
0049
ff8e
00d1
00ad
fbd9
fe5e
0061
ffc2
ff9f
002b
0031
ff99
ff9f
ff74
ff96
ff96
ff52
ffbc
ff8d
ff84
003b
ffa9
ff8a
ffde
ffa0
002b
ff4c
004d
ff6d
006a
ffe8
ff8c
00bb
ffcc
ffe8
0076
0091
feef
000c
00d7
004d
fff6
003f
ffe7
ff19
ffaa
ff48
ff63
ff35
ffe9
0065
ff74
fffd
ff78
ff9b
004c
0007
00a7
feeb
0016
0090
001c
0022
ffb9
004d
ffcd
011e
00c9
003d
ff5a
fff6
fff9
ff85
004e
fff4
fff0
ff73
ffac
ffb9
ff73
0120
ffe5
00d2
ff5e
ffbd
fffb
ffc7
0047
0021
ffdf
ff79
002b
ff37
fffb
ffe7
fffe
0022
002d
ffff
0008
0064
fe53
009e
0058
0012
fffa
0067
ffc2
ff85
ff58
ffa0
ff6f
ffb9
ffb9
ffa2
ffd9
ff96
ffc5
000f
ffa4
ffc9
ffe5
ffb5
001b
ffad
0031
ffe8
ffd9
ffdf
ff8b
006c
0073
0175
fdc0
ff6c
0041
001e
ffb2
0030
ffa5
001f
ff2e
ffce
ff69
ff85
ffe1
ffb0
ffb1
ffe6
ff39
004d
ff96
ff62
ffb8
ff2d
0006
fefa
ffee
ffee
ff40
ff1f
ffcd
008d
ffa2
fdfa
0288
ffc6
ffed
0000
ffa1
0026
ffdd
ff98
ff77
ff8d
ffb5
ffbc
ff68
ff22
002a
fff0
fff8
004d
00d3
ff9d
ff70
feb4
ff7a
ffc5
feba
ffd0
ff92
00d4
ff89
002f
008b
fd07
0098
ff4d
ffc4
ffdd
ffb8
0026
ff58
ff7a
fee4
ffe5
ffaf
ffc0
ff3e
ffcd
fff4
ffff
ffd0
ffae
ffb2
ff26
ff89
ff8a
0093
ffb8
ff6f
ffa1
0021
ffc4
ffa6
ff98
ff9f
0136
0029
00be
0033
0000
ffdf
ffa2
ffac
ffbd
ff23
ffaf
ff5b
ff50
ff49
ffb1
ff7d
ff86
ff25
ffa4
ffca
ff4d
ffe2
001a
ff6c
ff24
ffa3
ffa3
ff79
ff55
ffc8
001b
0175
ffe5
0001
02e5
001c
001c
0036
ffe1
ff94
feff
feaa
0044
ff5b
ff84
fff8
000e
ff7d
ffa2
ffea
ff78
ffb6
ffaf
ff94
ff6e
ff57
ffb4
ffaf
ffaf
ff36
0083
00ae
001e
0274
fffd
ffff
fe38
0188
001c
fff2
ffb9
0047
0065
ff6d
ffb9
ff54
0047
ffc2
ff9f
ff79
ff76
ff5e
ffb9
0013
005b
ff5c
0034
ffd5
ffbc
0030
ffb9
003c
fff3
0055
017d
fe5b
0005
ffff
0001
0010
fe13
ff10
0096
003d
ffa7
fff0
0042
ff62
ff1e
ffc1
002f
ffb5
008a
000f
ff89
000a
ff50
0067
ffe8
001a
ffd6
004d
ff87
00ac
ffda
0056
02f2
0001
fffd
0000
0001
fed4
00e6
ffad
ff76
000a
ffe3
ff58
ff68
ffdb
00cb
fffc
0001
ff6d
0052
0101
ffb9
ffed
0016
ffc0
ff7b
006e
ffb6
0004
0048
0081
ff3e
0101
ff7a
0004
ffff
0000
0003
0002
fec8
01c0
0005
fff9
ffe0
0073
003d
003c
0048
0043
ffbd
ffcf
0033
0034
0097
ffba
ff6a
007d
0003
ffc6
0005
ff89
0034
ffb9
01cd
fe86
0003
0002
0002
0004
ffff
0003
ffe8
fcfe
00bb
ff89
ffee
fff4
0063
003b
fff9
0008
0089
fffd
fff6
00ea
00bd
ffd2
003a
001e
ffeb
006e
0072
0045
ff7e
fffe
0310
ffe3
fffb
fffe
0002
fffe
0002
0000
0000
0004
0454
02bc
ff8e
0002
ff9f
0033
0022
ffe4
ffee
ff5c
ff9b
0005
0001
ff95
ffc5
ffba
fff7
ffab
0022
0111
0157
0433
fffc
0004
0000
0003
0002
0004
0003
fff9
0002
0001
fffd
ff53
01ef
00fc
ffce
ffee
ff38
0068
00d3
00a4
0017
008f
0027
0053
0061
001f
ffcd
fff7
002c
018c
ffdf
0000
0001
fffc
0004
fffe
0005
fffe
0001
0002
0003
ffff
ffff
0002
0001
01e3
04ca
004d
0022
00b6
0070
005a
ffee
ffd4
004b
ffba
008a
ffe0
ff92
036e
0198
fffe
ffff
0000
fffe
0002
fffe
0000
0007
0001
fffe
fffc
fffe
fffe
0000
0006
0000
ffff
0001
000c
0385
0100
ff84
00b7
fff9
fffc
00e7
002d
01ce
0346
fffb
ffff
0002
fffd
fffa
ffff
0000
0000
0001
fffd
0000
