0003
fffc
fffe
0005
ffff
0001
0001
0000
fffe
fffe
0000
0002
0004
fff8
fff9
fffd
fffb
fff4
ffff
ffff
fffe
fffe
0000
fffd
0000
fffd
ffff
0000
fffc
fffe
0003
ffff
0000
0003
0000
0002
fffe
0001
fffe
0002
0002
fffd
fff8
fffa
fffb
fff6
fff8
fffa
fffa
fffc
fff8
fff5
fff6
fff8
0000
0001
0000
0001
0001
fffb
ffff
fffe
0001
0004
0002
ffff
0000
ffff
0000
0001
0003
fff9
fff8
fff2
fff8
fff7
fffc
fffc
fff5
fff7
fff9
fff5
fff1
fff8
fff9
fffa
fff7
fffc
fffd
fffd
fffe
ffff
ffff
0002
0000
0008
ffff
0000
ffff
0001
0000
fffc
ffff
fff9
fff6
fffb
fff9
fffa
fff6
fff7
fffb
fff9
fff6
fff8
fffb
fffe
fffc
fff2
fff6
fff3
fff7
fffc
0000
0002
0001
0002
0000
0004
0002
0003
0007
ffff
0001
fff9
fff7
fff4
fff7
fffa
fff6
fff6
fff8
fff9
fff8
fffa
fff9
fff8
fff9
fff6
fff9
fffa
fff9
fffa
fff5
fff5
0001
fffd
fffe
fffe
ffff
0001
0002
0000
fffe
0002
fffb
fffa
fff3
fffa
fff5
fff4
fff9
fffc
fff8
fff4
fffa
fffb
fff9
fff9
fff5
fff8
fffb
fff9
fffb
fff5
fff7
fff5
fff9
ffff
fffd
ffff
fffe
0001
0003
0001
0000
fff8
fff7
fff7
fff2
fff5
fff9
fffb
fff9
fffa
fffb
fff3
fff6
fff9
fffb
fff8
fff9
fff9
fff6
fffb
fff7
fff6
fff9
fffa
fffb
fffa
0000
fffe
fffd
fffc
0000
0002
fffe
fff7
fff8
fff6
fff6
fffa
fffb
fffc
fffb
fff8
fffe
fff6
fffd
fff7
0000
fff8
fff9
fff9
fffb
fff8
fff8
fff5
fff5
fff7
fffb
fff9
fffa
0001
0001
ffff
ffff
fffd
fff5
fff6
fffa
fff9
fff5
fffd
fff9
fff7
fff8
fff9
fff6
fff9
fff5
fff8
fff8
fff7
fffb
fffa
fffa
fffa
fff7
fff3
fffa
fffc
fff7
fff9
fff7
0003
0001
0000
0003
fffc
fff7
fff7
fffa
fffc
fff5
fff8
fff8
fffb
fff8
fff9
fff9
fffc
fffd
fff6
fff9
fff8
fffa
fff7
fff5
fffb
fff6
fffa
fffb
fff8
fffc
fff9
fffe
fffd
0003
fffd
0000
fff8
fff7
fffb
fff9
fff7
fff7
fffa
fffa
fff8
fff8
fff5
fff6
fff8
fff7
fffc
fff8
fffa
fff9
fff9
fff6
fffc
fff6
fff8
fffb
fffb
fffb
fff6
fff8
fff6
fffc
fffe
fffc
fff8
fffc
fffd
fffb
fffc
fff7
fffb
fff6
fff8
fff5
fff9
fff8
fff8
fff7
fffa
fff8
fff5
fffa
fff6
fff7
fffb
fffa
fff8
fff7
fffe
fff6
fffb
fffc
fffc
fff9
fffe
fff4
fffb
fff7
fff7
fffa
fff6
fffc
fff9
fff5
fff1
fffa
fff6
fffc
fffa
fff7
fffc
fff9
fff9
fffc
fffd
fff5
fffb
fff7
fffe
fff5
fffe
fffa
fffc
fffc
fff8
fff9
fffc
fffc
fffa
fff8
fff2
fff7
fff9
fff4
fffb
fff8
ffff
fff5
fffc
fff4
fff6
fff6
fff8
fffb
fff7
fff4
fff7
fffa
fff7
fff6
fff6
fffa
fffc
fffa
fff7
fff9
fffc
fffa
fffe
fff6
fff6
fffe
fff4
fffb
fff7
fffa
fffa
fffb
fffd
fff8
fff5
fffc
fffa
fffa
fff7
fffa
fff6
fffc
fff7
fff9
fff7
fff6
fff8
fffa
fff6
fff1
fffa
fff7
fff7
fffb
fff9
fffc
fff7
fffe
fff9
fff9
fffc
fff8
fff5
fff7
ffff
fff8
fff9
fff6
fffa
fff6
fff6
fff4
fffe
fff9
fffd
fffa
fff8
fff9
fff7
fffa
fff6
fff5
fff8
fff7
fff8
fffd
fff9
fffc
fff7
fff9
fff9
fff6
fff8
fff7
fff6
fffc
fff9
fff8
fff7
fffd
fffb
ffff
fffa
fff9
fff6
fff7
fff7
fff8
fff9
fffd
0000
fff9
fff9
fffa
fffd
fffb
fff9
fffd
fff8
fffa
fff7
fff7
fff7
fff5
fffa
fffd
fff6
fffa
fff9
fffa
fffd
fff6
fff6
fffb
fff9
fff6
fffd
fff9
fff6
fff6
fff8
fffa
fffc
fff7
fff8
fffa
fff6
fff7
fff6
fff6
fffb
fffa
fff8
fff7
fff7
fffe
fffa
fffc
fff7
fff9
fff6
fff9
fff6
fff7
fff7
fffc
fffd
fff8
fff6
fffb
fffa
fffd
fff9
fffb
fff8
fffb
fff8
fffa
fffa
fff9
fff9
fff6
fffc
fff8
fff9
fff9
fffa
fff7
fff7
fffa
fff6
fffc
fff8
fffa
fff5
fff5
fffd
fff5
fff7
fff4
fffc
fff7
fffb
fff9
fff8
fff7
fff8
fff5
fff7
fff7
fff0
fff9
fff7
fff7
ffff
fffd
fff3
fff5
fffb
fff6
fffb
fff9
fffd
fffb
fff9
fff8
fffa
fffb
fffa
fffb
fffa
fff6
fffa
fffb
fff7
fff6
fff7
fff5
fffb
fffa
fff9
fff7
fff5
fffc
fffd
fffa
0001
fffd
fff6
fff5
fff6
fff6
fffb
fff9
fff7
fff5
fffa
fffa
fffc
fff3
fffa
fff8
fff9
fff9
fff8
fff7
fff6
fff8
fff7
fff9
fffa
fff7
fffc
fffc
fff9
fffb
fff3
fff7
0000
fff9
fffa
fff9
fff8
fffa
fff5
fff8
fff8
fff8
fffa
fffb
fff6
fff9
fffb
fffd
fff9
fff7
fff7
fffa
fff6
fffc
fff5
fff3
fff8
fff6
fff4
fffb
fffb
fff9
fff8
fffb
fffb
0001
ffff
fff9
fff9
fffa
fffa
fff8
fff9
fff9
fff7
fffb
fff8
fff4
fff7
fff9
fffb
fffc
fff6
fffa
fffa
fff8
fffa
fff9
fff9
fff9
fff6
fff6
fffb
fff7
fff1
fffd
0001
fffd
fffe
fffb
fffa
fff5
fff7
fff9
fff8
fffd
fffa
fff5
fffb
fff6
fff9
fffe
fff5
fff9
fffb
fff6
fff3
fff8
fff7
fff8
fff4
fff5
fff5
fff9
fff7
fffb
fffc
0000
0003
0000
fffb
fffe
fffa
fff7
fff7
fff6
fff7
fff9
fff3
fffa
fff9
fff5
fff2
fff9
fffb
fff7
fff7
fff8
fff8
fff9
fff7
fffa
fff8
fff7
fffd
fffb
fffa
fffe
0002
0005
fffc
0002
0002
0000
0004
fffd
fff9
fff5
fff6
fff4
fff9
fffc
fffa
fffc
fffd
fff3
fff8
fffb
fff9
fff7
fff6
fff2
fffe
fffc
fffc
fffb
fff6
fff6
fff7
0000
ffff
0001
0008
ffff
fffe
0003
0001
fffd
fffa
fffa
fffb
fffa
fff9
fffc
fff9
fffc
fff8
fffe
fff9
fff9
fff9
fff8
fffb
fff8
fffc
fffe
fffd
fffe
fff7
fffb
fffa
0003
0001
fffa
0003
0001
0004
0000
fffe
0000
ffff
fff9
fffd
fff8
fff8
fff8
fff9
fff4
fff9
fff7
fffc
fff9
fff0
fffe
fff8
fffc
fff8
fff7
fff7
fffb
0002
0002
0000
fffd
0000
0004
ffff
ffff
0001
ffff
0004
0002
fffd
fffb
ffff
fff8
fffc
fffa
fff8
fff2
fff9
fff7
fffa
fffa
fff5
fff9
fff7
fff6
fff8
fff3
fff6
0001
fffd
ffff
ffff
fffd
ffff
0005
ffff
0001
ffff
0000
fffd
0000
0004
0001
fffc
ffff
fff9
fff9
fff8
fff3
fffb
fffe
fff6
fffa
fff5
fff8
fff9
fff5
fffa
fff6
0004
fffe
ffff
ffff
0002
0002
fffe
0000
0002
fffd
0000
fffd
fffc
fffc
fffb
fffe
0000
fffb
0003
0000
0001
fff6
fff5
fff6
fff6
fffa
fff7
fffb
fff8
fffe
0000
0000
0002
fffe
0000
0001
ffff
0001
ffff
0000
fffe
