0001
ffff
ffff
0002
fffe
fffe
fffd
ffff
ffff
ffff
fffe
022d
0195
0014
feee
ffba
ff15
ff50
0207
0175
0313
0021
0004
0000
fffd
ffff
ffff
ffff
ffff
0002
0003
fffe
0005
0003
fffe
fffe
0002
fffe
ffff
ffff
02a8
0031
ff50
ffd9
ff1d
fff7
003d
ffd8
fff2
ff48
ffb7
ff48
ffdf
ffc7
fe5c
0302
fffd
0000
0000
fffe
0004
0002
ffff
0000
0003
0003
0001
ffff
fffe
ffff
0035
005f
fd61
00ad
001c
ffd2
ffe9
fffb
000b
0023
ff9b
ffdd
ff4a
ff43
ffe4
ffca
007d
0002
ffa9
004a
fffe
0000
ffff
fffc
ffff
0003
0002
fffb
ffff
0000
0019
0265
02f4
ff1a
0016
001f
ffb0
ffd6
ffaf
ffbf
001a
ff98
fff5
ff58
ffc8
0002
0043
ff52
000f
ffff
ff6b
ffc8
02da
ffff
0000
0001
0007
fffe
0001
0006
0004
0002
0216
fcb5
ffd9
ff30
ff77
ffd7
0079
ff8f
0057
0093
0014
0073
00e3
fff4
0064
0030
fff6
001c
000c
ff66
ff44
0019
ff8d
01eb
000c
0002
fffe
0000
0002
0002
0003
024d
ff63
0040
ff70
ff85
0016
0066
fff6
ff88
ffe1
00cd
fff9
008e
0019
00f7
0078
0033
0021
0043
ff7e
ff88
ff62
002f
0041
0024
0318
0000
fffe
0001
fffe
0006
006c
ff08
ffc2
ffd5
0067
0050
ffe5
006f
009f
00c6
002b
0013
008d
0077
000b
0096
0020
0042
004e
ffed
0003
ffa9
ffaf
ff53
007f
ff4f
0050
009a
ffff
fffd
0006
0004
ff14
ff52
0083
006b
00b4
001c
00bd
00be
00e7
00a2
0051
0035
ff84
0059
004a
0095
ffc0
fff7
0015
00c1
0028
0079
000e
ffa1
ffe8
006b
0115
0185
0001
fffc
0002
022b
ff45
00d4
002d
009b
002e
0038
ffc7
fffb
0076
0049
0041
0137
0055
0033
006e
0074
007d
0087
ffc2
003e
0009
0037
ff7f
ffdb
ff9c
ffb7
000c
0113
01fa
0001
0000
ff89
ffa1
ff9a
0002
ffe5
010c
00cc
0136
0021
00ef
0076
00c6
0113
010b
0088
0033
fff9
005b
ffc8
0087
0061
00af
fff8
ff7a
ff70
ff9f
ffa9
000b
008f
ffaa
fffc
000f
fdbf
000e
ffc7
006f
00b1
0049
fff0
00ea
00b5
00a2
00c5
00b6
0144
007f
001d
ffc1
ffdd
ffa4
ff80
ffa2
0096
ff95
009d
ffa7
ff0c
003d
feb8
fed0
ff68
fffa
0010
03fb
006f
00ab
0008
00dc
00d5
ffcc
ffc9
00d9
0048
00dd
00cf
014a
0087
006f
ffb5
0025
0044
0107
fff6
00c7
0014
000a
005f
fef4
ffb3
0024
ff8e
ffa6
ff76
ff1a
0338
fe59
0046
ffbc
ffb1
0016
00ba
0054
0121
005b
000b
00a7
0118
00a0
0004
008c
0045
ffe6
0016
0059
0016
00ba
003c
0080
ff63
fff2
ffbd
ffea
ffe3
feda
004a
ff5e
01d2
01f7
fffd
ff9e
003b
0070
0081
001f
00ca
00b3
00b7
008e
ffca
0053
0035
00e7
0087
00e1
00c9
0067
0032
0039
0098
0083
0072
0014
ff5d
ffb0
ffbd
0077
ff28
ff51
0426
01ac
ffa1
003b
005f
ffd1
ffd1
0066
0061
0096
006a
006c
00a9
003c
0078
007c
ffc7
004f
007a
001e
0063
ffd7
00b3
ffb0
0093
ff96
0018
0073
ff49
003b
001c
ff8e
ff67
0107
fff2
ff2a
ffb5
000c
ffc6
001e
00e6
0052
00b9
00a0
00ca
0019
ff93
008d
0008
008f
006a
ffb5
fff5
ff62
0112
ffea
ff72
ffe5
ffdf
004b
ffb1
0036
fedf
ff31
ffbd
00a3
0015
ffff
007e
ffad
000b
0013
0088
004a
0048
0085
fed2
001c
ff2a
00a7
003d
fffe
003c
ffb2
ffe4
0021
0086
ffd7
00c7
0007
000f
000d
ffd6
ffd1
0001
fff3
ff9a
01ad
ff61
ffa9
ffed
0006
ff98
003c
0072
00a4
0058
0096
0043
0047
0061
002c
0067
003a
fff1
0055
0034
001a
004d
ffe0
0056
ffcd
001e
0021
0020
007b
ff96
ff9b
fe83
023e
008b
ffb7
ffe7
004a
ffd1
005e
ffe1
00d5
0033
009d
007f
0017
0054
0053
001b
00bd
ffbb
006d
009d
0046
00d2
fffc
0106
0016
0011
00bf
00db
0032
ff77
0058
020d
fd73
0040
000b
0000
005b
ffdb
0025
0066
008a
0073
0049
0040
009a
00e0
ffd4
0009
0004
ffb7
ff2d
005e
0091
0155
0085
0036
0143
003b
0071
ff30
0077
ffce
ff71
02f7
ff60
00ba
0034
0024
0049
ffdc
00ad
0086
011c
001d
004b
0040
00c3
0031
000d
ffff
002e
0054
004c
00d9
0077
006e
ff6d
0043
0095
0061
ffdb
0035
0056
0067
005b
fec9
ffcf
ff3a
ffce
ffff
0023
005d
0054
0040
00d7
004f
00a4
00ac
00b6
0052
007d
007b
00e0
0062
0036
00b6
0022
ffe6
009c
00e3
005c
005e
0088
00a9
0035
fff0
fe89
001f
0001
fd1d
ffe3
ffdf
ffcf
0017
0068
0107
0153
ffbc
00a0
0082
fffb
fff6
007f
0063
001f
008c
0049
004f
0071
0099
00aa
0048
0052
0042
00cb
ff7c
ff53
ffe4
fd95
fffe
fffc
01c8
fe79
ffe5
000b
004e
ffb7
ff95
0093
003e
00a6
ffbc
003f
0060
0089
008d
00a3
0047
fff3
ffa5
00a1
ffc7
0027
0040
ffd3
0046
ffbf
000e
ffb2
fe83
01a4
0000
0000
fffd
ffef
01ec
00eb
ff73
ffc0
0053
000e
ffc6
00a0
00e6
0038
ffc9
0051
ff72
fff0
0072
fff3
00b1
ff94
001a
ffe4
0029
ffac
0080
ff4d
0027
ffab
fd0e
fffc
ffff
fffc
0001
012c
ff17
0051
008b
fff9
0016
009f
009a
0022
ff38
0004
fff9
0091
ffac
fef5
0040
0011
ffe8
0044
0088
ff95
004c
0000
ffb2
ff7d
00c7
ff05
0089
0001
0002
0003
0002
0002
0135
fe42
fff9
0003
001d
ff8c
ffc5
ffc2
ffc0
ffbd
0048
0030
ffcc
ffcd
ff6d
0050
0094
ff7c
fff1
003b
0003
0071
ffca
0045
fe40
0177
0003
0000
0002
0000
0001
0000
001b
0301
ff3a
0082
000f
0011
ff98
ffc3
0006
ffff
ff7b
0007
000f
ff10
ff3d
0023
ffc4
ffe1
0011
ff8e
ff84
ffbd
007e
0005
fcef
001c
0003
0004
fffc
0000
0000
0001
fffe
fffd
fb9d
fd45
006d
fff8
0062
ffcb
ffe6
001e
000d
009b
0069
fff9
0001
0070
0039
0049
0012
0055
ffe0
feeb
feb5
fbc5
ffff
0002
0003
0003
ffff
0001
fffd
fffe
0001
0001
fffd
00ac
fe14
fefd
0038
0014
00ca
ff94
ff34
ff5c
ffe4
ff71
ffd3
ffb2
ffa2
ffe7
0034
0008
ffd9
fe77
0021
0002
fffc
ffff
0001
ffff
0001
fffe
0000
ffff
0001
fffb
0005
fffc
fffe
fe22
fb38
ffb3
ffdd
ff47
ff8e
ffaa
0019
002c
ffb3
003c
ff77
002b
0075
fc90
fe6e
fffc
0003
fffc
0000
0000
0002
ffff
0002
fffe
ffff
0003
0001
0000
ffff
0001
0003
0002
0003
fff4
fc7d
fef5
0080
ff45
0004
fff8
ff1d
ffd6
fe3e
fcba
0003
0003
fffe
ffff
fffc
0001
fffd
0004
0003
0003
0000
