fffb
ffff
fffe
0003
fffd
0008
0002
0002
fffd
0000
fffb
0003
fffa
ffff
fff4
fff3
fffa
fff6
fffb
fffc
fffa
0001
ffff
0005
0004
0000
0001
ffff
0000
0001
fffc
ffff
0005
0001
fffd
0000
0002
0003
fffe
fffd
0000
fffc
fff8
fffb
fff5
fff7
fff6
fff4
fff6
fff6
fff4
fff4
fff3
fff7
fffb
0003
0002
0003
0002
0002
fffa
0002
0001
0003
0002
0000
0002
fffd
fffe
0003
0004
0000
fff5
fff5
fffa
fff7
fff3
fff4
fff5
fffa
fff7
fff5
fff4
fff8
fff4
fff6
fff6
fff8
fffa
0002
0001
0000
0001
fffc
0004
0000
fffc
0000
fffd
0003
0002
0002
fffc
fff9
fff6
fff4
fff3
fffa
fff7
fff7
fff7
fff6
fff9
fff9
fff3
fff7
fff5
fff5
fff7
fff5
fff7
fff8
0000
0000
fffe
0000
0002
fffd
ffff
0001
fffe
fffe
0003
fff7
fff7
fff8
fffb
fff8
fffa
fff4
fffa
fff6
fffc
fffa
fff8
fff5
fffb
fff3
fff0
fff2
fff4
fffa
fff7
fff6
fff7
0003
0000
ffff
0003
0006
0000
0003
fffd
0000
fff6
fff9
fff7
fff3
fff6
fffb
fff8
fff8
fff5
fff5
fff6
fff6
fff1
fff4
fff3
fffa
fff2
fff8
fff7
fff8
fff5
fff9
fff2
fff8
0001
ffff
0000
fffd
fffb
fffe
0003
fffc
fff7
fff6
fff4
fff4
fffa
fff2
fff4
fffa
fff3
fff4
fff5
fff5
fff8
fff3
fff7
fff3
fff7
fff7
ffff
fff2
fff8
fff7
fff6
fff1
fff9
0000
0000
0004
fffe
0000
fffd
fff7
fff8
fff6
fff7
fff8
fff5
fff6
fff6
fff5
fff2
fff0
fff7
fff5
fff7
fff5
fff6
fff6
fff6
fff7
fff5
fff6
fff3
fff8
fff9
fffa
fff7
0001
0006
fffc
fffc
fffe
fffb
fff9
fff8
fff5
fffc
fff7
fff7
fff5
fff6
fff5
fff7
fffc
fffc
fff7
fffb
fff7
fff7
fff6
fff5
fff5
fff5
fff8
fff2
fffa
fff5
fff6
fff5
fffa
fffe
0004
0001
fff9
fffa
fff3
fff8
fff4
fff9
fff5
fff5
fff5
fffc
fff6
fff5
fffa
fff3
fff4
fff6
fff7
fff5
fff9
fff4
fff6
fff6
fff0
fff3
fff8
fff7
fff4
fff6
fff4
fff5
fffc
0008
fffa
fff2
fff5
fff4
fff9
fff4
fffd
fff9
fff2
fff5
fff7
fff6
fff4
fff6
fff9
fffc
fff7
fff8
fff2
fff5
fff6
fff5
fff5
fffa
fff5
fffa
fff5
fff5
fff7
ffef
0001
fffb
fff6
fff7
fff8
fff4
fffb
fff7
fff8
fff9
fff6
fff1
fff5
fff7
fff8
fff6
fffb
fff7
fff6
fff7
fff4
fff8
fff7
fff6
fffb
fff6
fff8
fff5
fff5
fff8
fff5
fff9
ffff
fff9
fff3
fff5
fff6
fff6
fff7
fffa
fff5
fff8
fff1
fff5
fff5
fff7
fff9
fffa
fff6
fff6
fff5
fff6
fff3
fff0
fff8
fff4
fff8
fff8
fff1
fff7
fffa
fff8
fff2
fff6
fff8
fff9
fffa
fff5
fff5
fff5
fff6
fff8
fff6
fffa
fff8
fff7
fff8
fff5
fff8
fff8
fff8
fff6
fff4
fff3
fff4
fff6
fff7
fff9
fff9
fff6
fff8
fff9
fff6
fffb
fffd
fff7
fff9
fff7
fff5
fff5
fff7
fffa
fff6
fffa
fff5
fff4
fff5
fff0
fff8
fff6
fff7
fff5
fff4
fff9
fff8
fff8
fff2
fff5
fff8
fff7
fff9
fff9
fff7
fff7
fff3
fff3
fff9
fff6
fff5
fff7
fff6
fff3
fff7
fff9
fff3
fff5
fff6
fff8
fff5
fff5
fff9
fff2
fff8
fff4
fff7
fff8
fff9
fff9
fff3
fffc
fff6
fff8
fff5
fff8
fffd
fffa
fff2
fffc
fff5
fff9
fff8
fff8
fff7
fff5
fff7
fff5
fff5
fff4
fff9
fff7
fff4
fff8
fff7
fff6
fff8
fff4
fff5
fff6
fff9
fff9
fffa
fff8
fff6
fff9
fff4
fff4
fff2
fff1
fff5
fff4
fff5
fffc
fff7
fff8
fff9
fff7
fff1
fffb
fff7
fff6
fff5
fff9
fff8
fff6
fff6
fff2
fff6
fff3
fff7
fff6
fff6
fffa
fff2
fffa
fff5
fff7
fffb
fff6
fff9
fff3
fff8
fff7
fff9
fff3
fff8
fff7
fff2
fff6
fff2
fff7
fff0
fff8
fff7
fff9
fffb
fff2
fff9
fff2
fffb
fff3
fff5
fff8
fff8
fff9
fff9
fff9
fff7
fff3
fff7
fff9
fff7
fff5
fff4
fff7
fff6
fffa
fff3
fff6
fff7
fffb
fff8
fff6
fff5
fff9
fff6
fff1
fff6
fff3
fffa
fff8
fffb
fff7
fff9
fff5
fff5
fff9
fff9
fffb
fffa
fff3
fff5
fff4
fff7
fff9
fff9
fff7
fff7
fffb
fffd
fffe
fff6
fff8
fff6
fff7
fff7
fff6
fff6
fff9
fff5
fff6
fff6
fff6
fff5
fff6
fff9
fff7
fff8
fff3
fffa
fff5
fff5
fff3
fff5
fff5
fffb
fff7
fff3
fff4
fff7
fff5
fffc
0000
fffa
fffa
fff5
fff8
fff7
fff3
fff7
fff1
fffa
fff6
fff4
fff8
fff6
fff6
fff8
fff4
fff2
fff4
fffa
fff7
fff9
fffb
fff3
fff5
fff7
fff9
fff5
fff6
fff8
fff2
0003
0000
fffb
fff7
fff9
fff9
fff6
fff9
fffb
fffa
fffc
fffb
fff5
fff3
fff6
fff3
fff5
fff2
fff3
fff9
fff1
fff5
fff6
fff7
fff7
fff3
fff9
fff3
fff8
fff8
fff7
fff8
0004
ffff
ffff
fff1
fff9
fff8
fff9
fff7
fffc
fff8
fff0
fff5
fff8
fff8
fff9
fffa
fff5
fff7
fff8
fff8
fff3
fff5
fff5
fff3
fffa
fff9
fff6
fffa
fff7
fff8
fff6
0003
ffff
fffe
fffe
fff8
fff6
fff6
fff4
fff6
fff2
fff5
fff5
fffa
fff8
fff5
fff7
fff6
fffb
fff5
fff5
fff6
fff9
fff2
fff6
fff6
fff5
fffa
fff7
fff5
fffa
fff6
fffd
fffe
0002
0003
0003
0005
fff7
fff0
fff5
fffa
fff5
fff6
fff7
fff8
fff4
fff5
fff7
fff5
fff6
fff7
fff5
fff8
fffd
fff6
fff3
fff6
fff4
fff7
fff7
fffd
fff7
fffa
0000
0001
0002
0001
0000
fffc
0006
fff8
fff4
fff6
fffc
fff1
fff6
fff3
fff6
fff6
fff2
fff4
fff8
fff5
fff8
fff7
fff6
fff7
fff9
fffb
fff6
fff7
fff1
fff3
fffc
0003
0003
0001
0001
0000
0004
0001
0001
ffff
fff1
fff4
fff6
fff9
fffa
fff5
fffc
fff6
fff9
fff4
fff7
fff5
fff5
fff8
fff5
fff8
fff8
fffa
fff5
fff7
fff8
fff7
ffff
0000
0003
ffff
0002
fffc
0003
0004
0003
0000
fffc
fff5
fff5
fff4
fff6
fff4
fff7
fff9
fff5
fff4
fff0
fff9
fff7
fff6
fff8
fff6
fff5
fff8
fff5
fff2
fff5
fffc
0001
0004
0001
0000
0001
fffe
0002
ffff
0000
0002
ffff
fffe
fff7
fff7
fff8
fff7
fff7
fff3
fff7
fff4
fff9
fff6
fff3
fff9
fff9
fff6
fff8
fff4
fff3
fffd
0004
fffe
fffd
0001
0002
ffff
0000
0005
0003
0003
ffff
0001
0003
0000
ffff
fffb
fff1
fffb
fffa
fff7
fff4
fff7
fff5
fff9
fff4
fff7
fff6
fff7
fff3
fff7
fffb
fffd
0001
0004
fffe
fffd
ffff
0003
0000
0001
0001
fffe
0002
ffff
0000
0003
fffe
fffd
ffff
fffd
0000
fff7
fff7
fffb
fff3
fff8
fff5
fff4
fff3
ffff
0003
ffff
0002
fffd
0000
0002
fffc
0003
0001
fffe
fffe
