fffe
0001
fffd
ffff
0002
0002
0002
ffff
0002
0001
0030
004b
ff7c
ff5e
ffe0
ffcb
ff20
0092
006a
00ae
0003
fffe
0002
ffff
ffff
0001
ffff
fffe
ffff
fffe
fffe
0005
ffff
ffff
fffe
fffe
0001
0009
021e
01f8
ff7b
ffcd
ffd4
0022
0039
fffb
ffc2
fff0
ff1d
ffdb
0154
01b6
002b
0000
ffff
fffc
ffff
0000
0000
0003
fffd
0002
0003
0000
0001
0000
00ae
ff01
fffc
ffed
0052
0027
ffe8
ffd2
000b
fff6
0024
ff60
0015
ffd1
000b
0055
0201
00a0
ffff
fffd
ffff
0003
0002
fffd
0004
0000
0001
0003
0046
fd47
ff48
0042
fff5
ffbe
000c
ffe5
0002
000f
fffd
0049
000e
0009
ffdc
0057
0004
ffc1
ffd8
ff2b
00c1
0001
fffe
ffff
0000
fffe
0006
0005
fffd
0000
ff83
ffc4
ffce
ff64
004c
ffd9
ffec
0008
0065
0033
ffeb
ffe4
0003
002e
ffea
006d
ffa7
ffb0
ffb5
ff8f
005c
027f
0049
0001
ffff
0003
0001
0001
fffe
ff1f
ffce
fff6
ffae
fff4
0021
002c
fff5
fffc
ffc5
001c
0047
ffcd
0071
003c
0030
000a
ff6b
ffc4
ffc2
003d
ff9f
fff5
01d6
0001
0000
0002
0001
fffc
ffa1
00be
ffcb
ffa0
0014
000a
0048
ffcc
001a
006a
0006
ffc1
0049
0003
ffe9
006c
ff93
0003
ffa9
ff95
ffef
ffd5
ffeb
ffab
ff51
00e8
0002
0004
ffff
0000
fed6
0078
ff88
0014
ffe5
ffe2
0072
0047
0009
0003
000b
ffc8
001f
0046
0034
ff76
0045
001e
000b
002c
ff7c
ffe2
0002
0024
ff7e
ff3a
000d
0002
fffe
021b
ffb6
0051
0052
0016
0076
0008
0038
000f
ffe3
fffe
ffe3
000d
003a
0005
fff7
ffeb
0036
fffb
001e
ffe5
ffbd
ffb9
ffa9
ffe9
ffc6
00ad
019d
0002
0006
ff96
0011
ffe3
0019
ffd8
0041
ffad
ffff
ffb1
000d
00a5
0046
0022
0014
ffee
ffed
ff90
ff5f
0076
0024
ffce
fff8
ff84
ff99
ffdc
ff8e
ffc2
01ef
0005
01c7
ff89
0026
fffe
003d
0048
ffdb
ffe8
002a
ffef
0054
0071
0046
0066
ffe0
001d
0031
0053
002b
fffa
ffa4
0001
ffe7
ffc1
ff73
0013
000a
ff88
ffb8
00ba
ffde
ffb9
ffe6
001e
0024
000c
ffad
0003
0034
0031
0030
ffb1
001b
0082
001c
000a
000d
0051
0073
ffd4
ffd7
ffc8
ffea
ff99
ffae
ffee
ffa4
ffbb
ffc0
0225
fef7
0013
ffcf
000b
0025
0042
0037
0055
ff9b
fff2
003b
008e
000b
0073
004c
007b
007b
0061
002b
ffdf
007c
0015
0011
ffb5
ffe2
ffdd
ffdb
ffcc
ffa7
00f1
000c
ff95
000f
002c
ffe8
0067
fffd
ffa3
001c
0025
0020
0011
004b
0019
004b
fff5
0014
0005
000b
ffc3
003e
002e
ff84
ff93
0013
ffce
0060
ff8a
ffbf
ff40
ffef
000f
ffc9
fffb
001f
ffd8
0007
0008
0002
0003
00cb
000f
ffea
00b4
ffd5
0009
0036
ffd0
0017
0023
001e
ff9d
ff9d
ffd9
0025
ffae
ffca
ffa0
ffc0
ffc9
0056
0019
0035
0011
ff93
0039
0024
003d
fff1
0020
00a0
0015
0021
000c
0044
0062
0012
0042
ffff
0040
0012
0052
ffe8
ffe2
ffe5
ffed
ff8a
ffd8
ffd4
ffa3
ff68
0020
002b
0003
0068
ffe9
ffc9
0044
0018
fffa
002b
0036
ffa9
002c
fff4
0039
006e
0069
0027
0023
0044
ffcd
ff6a
0000
ffd9
ffd8
ffb8
ffb2
ffe7
ff35
ff30
fff3
0009
0039
005f
fffa
0008
ffd7
000d
fffd
0022
007b
0000
0056
0099
005a
003e
008e
007e
0019
001e
0015
0012
0006
0046
fff4
ffb7
ffb0
ffa5
01e2
0033
ffda
0029
005d
001c
ffd8
000e
0001
003e
0025
ffd6
002d
00ab
008d
0063
0020
0061
0044
0047
0086
0083
0001
0002
004b
ffd5
0002
0005
ffc1
fff4
0078
0108
ffe8
001d
0048
ffe8
0017
0016
fff1
004a
0004
0038
0085
004c
0066
ffe4
0022
0045
0060
0002
ffec
003e
001a
0009
ffd7
fff9
000d
ff96
ffa3
0000
009f
0000
ff21
003d
003a
003d
ffea
fff3
0085
0024
003e
005c
000e
0088
0091
001d
006c
0047
0066
005b
ffed
001d
ffed
fff0
002b
003f
ffe0
ffeb
ff9c
ff35
0003
0002
ff8e
003b
ffec
005d
ffcc
0028
0038
007d
000f
003a
ffd9
ffaf
ffff
0087
005b
0023
007d
0032
002f
ffe7
0008
fffb
fffb
0015
ffe3
ff66
ffe2
00ff
fffc
ffff
000f
fef0
fff0
001b
ffea
fff9
0044
003a
ffee
009c
001f
ffb6
001d
000e
0009
ffc2
0038
ffea
ffa0
000d
ffd2
0008
0091
0006
ffe0
0080
ff20
002c
0000
0004
ffff
ff75
ffd5
0075
0027
0002
fff8
002f
005f
0022
0087
0082
fffa
0015
ffb6
0083
0014
001d
0013
0054
0029
ffe1
0041
fffd
fffe
ff87
0062
0000
0000
0000
0003
fffe
ff43
003d
004f
0052
004b
005f
0044
0047
0028
0041
0069
0072
0099
0025
0088
0025
0023
ffd9
0043
0022
ff8a
ffba
0040
014e
fffb
0000
ffff
0003
fffc
0002
ff77
00ae
0041
007c
0031
0044
0002
002a
0007
ffde
0061
006d
fffc
0049
0043
0061
0000
ffcb
0026
0010
004e
0057
fef4
004a
0001
0003
0000
0000
0000
ffff
0001
ff5b
fdd2
000b
00ab
0037
002e
0028
002a
0066
0036
0059
ffd5
006e
0017
001e
0060
003c
0033
005f
ff57
002a
0003
0004
fffd
0000
ffff
0001
0004
fffd
0003
0003
0001
000a
ff59
fff4
0069
00bc
ffd9
0053
fff5
000c
ffd2
005e
007e
004b
003e
000a
001f
ff05
ff7d
fffc
0002
fffd
0003
0002
0001
fffe
0002
0001
0003
0005
0002
fffd
fefe
00f9
ff71
ffd8
ffd1
000d
006a
0065
0031
004f
003b
002f
ffb5
feed
010a
0014
0002
fff9
ffff
0002
fffe
0000
0000
fffd
fffe
fffd
0002
fffe
0002
ffff
fffd
0003
ff3c
ff2c
fd06
00b5
008d
0045
00ab
00a4
fecb
fd1e
ff26
ff38
0001
0003
0000
ffff
fffe
fffe
0000
fffd
0002
