fffa
0001
fffd
fffe
0000
0001
fffc
0003
0001
0000
fffd
022d
0194
000e
fefa
ffbb
ff14
ff53
0207
0170
030e
0021
fffd
0001
0002
0003
0001
0002
ffff
fffd
0000
fffe
0000
0003
0002
0001
0001
0002
0002
0002
02a6
0031
ff4c
ffd9
ff1d
fff0
003d
ffd7
fff6
ff46
ffb4
ff44
ffda
ffc3
fe5f
0306
0001
0002
0000
fffe
fffe
0000
0002
0002
0002
0002
0004
0001
0004
0000
003a
0064
fd63
00ad
001a
ffce
ffe5
ffef
000a
0024
ff9a
ffde
ff49
ff3f
ffe1
ffd3
0077
0005
ffac
004a
0003
0001
fffe
0002
ffff
fffd
fffc
fffb
0001
0001
001a
026d
02ec
ff1c
0013
0019
ffb3
ffdf
ffb0
ffb7
001f
ff9a
fff9
ff59
ffc9
0001
004a
ff4c
0015
fff9
ff69
ffca
02de
0001
0000
fffe
ffff
fffd
ffff
0001
ffff
0004
0223
fcb8
ffd6
ff33
ff75
ffd3
007a
ff91
0053
009a
000d
006d
00e5
fff2
0062
002d
fff0
001c
000c
ff6a
ff44
0015
ff8b
01e9
0012
0002
fffe
ffff
fffe
0003
fffc
0246
ff60
003e
ff7a
ff7f
0013
0065
fff5
ff8f
ffe3
00c6
fff8
008a
001b
00f1
0075
0031
0027
0043
ff7e
ff85
ff65
0027
0037
0021
0319
0002
ffff
0001
0003
ffff
0072
ff0e
ffc6
ffcd
005e
004b
ffe6
0069
009d
00c3
0032
000e
008d
0079
0010
0097
001e
004a
004c
fff7
ffff
ffaa
ffa7
ff59
0084
ff4c
0041
0098
fffc
0000
ffff
0005
ff1c
ff4d
0082
0068
00b1
001b
00ba
00c4
00e8
00a0
0056
0039
ff85
005c
0040
0097
ffbe
fff3
0018
00c5
0024
0078
ffff
ffa8
ffe9
006f
0119
018b
0004
fffe
0002
0230
ff4c
00d2
0026
0098
0030
0038
ffc4
fff5
0070
004f
0040
0136
0052
0030
0069
006f
0080
0085
ffc2
0045
000e
003b
ff81
ffd9
ff9a
ffb7
000c
0114
01f9
0001
0002
ff91
ff9a
ff9a
0006
ffe5
0109
00c7
0137
0027
00e9
0074
00c5
0111
0108
0085
002f
0004
005f
ffcb
0086
005b
00ae
fff7
ff79
ff6c
ffa8
ffa2
0003
008f
ffbc
0004
0010
fdc6
0007
ffc1
0074
00b7
0044
ffe5
00e8
00b1
0099
00c9
00b2
0144
007e
0019
ffbf
ffd4
ffa4
ff84
ff9f
008d
ff98
0095
ffa1
ff0b
003c
febf
fed3
ff64
fffc
000e
03fb
006c
00b1
000b
00d8
00df
ffcb
ffcd
00d8
0048
00df
00cf
014e
0086
0066
ffba
0027
004c
0104
fffc
00c8
0012
0007
005d
fef1
ffb4
001d
ff8d
ffa6
ff75
ff25
0338
fe5c
0048
ffb8
ffaf
0019
00b9
005a
011b
0056
0002
00a2
0120
0099
ffff
008b
003e
ffe3
0017
005a
000a
00bd
003b
007d
ff5e
ffed
ffc5
ffe9
ffe4
fed8
0046
ff5c
01cf
01fc
0000
ff9c
003e
0076
007c
001f
00c6
00ae
00b7
0083
ffcb
004c
0038
00eb
0086
00e5
00cc
0069
002d
0033
009b
008f
0074
0014
ff5a
ffaf
ffbe
0073
ff27
ff51
0431
019e
ffa6
003c
0064
ffcf
ffcd
0067
005d
0092
006c
006d
00aa
003f
0072
0077
ffc6
004c
0072
001e
0062
ffd2
00bb
ffb5
008f
ff90
0014
0071
ff46
003b
001a
ff88
ff66
010e
fff1
ff27
ffae
000b
ffbe
0020
00e8
004f
00b7
009c
00ce
0018
ff96
0094
0005
008c
0065
ffb4
fffa
ff5c
0112
ffeb
ff6e
ffe1
ffdd
004c
ffb2
0030
fedc
ff30
ffba
00ac
000e
0001
007b
ffb2
000e
0013
008a
0051
004a
008b
fed4
0020
ff2d
00a8
0045
ffff
0035
ffb3
ffdc
001d
0086
ffda
00c3
0002
0010
0004
ffdd
ffd3
0005
fff9
ff96
01b1
ff5e
ffa8
ffef
0009
ff93
003a
0073
00a7
0057
0092
0040
0048
005e
002b
0069
0034
ffe9
0056
0032
0018
0051
ffe0
0059
ffc9
001d
0024
001e
0076
ff9b
ff8a
fe8e
0246
0090
ffb3
ffe4
0050
ffcd
005d
ffdf
00d4
0034
0098
0081
001d
004b
0053
001f
00bc
ffba
006b
00a0
0048
00d0
fffb
0107
0013
0008
00c0
00dd
0034
ff70
0057
0205
fd7c
003e
0012
0006
005b
ffda
0026
0065
0083
0075
004a
0042
009b
00e4
ffd4
0010
0007
ffb6
ff28
005c
0090
0150
0084
0034
0145
002f
006e
ff30
0071
ffd8
ff79
02fc
ff65
00bc
0039
0017
0047
ffe2
00ad
0083
011c
001d
004f
0043
00ca
0031
0002
fffd
002e
0054
004d
00d5
0073
0076
ff6c
0041
0092
0066
ffe3
0032
0050
006a
0054
fec9
ffd1
ff43
ffd1
fffc
0022
0060
0054
0040
00db
0045
00a8
00ac
00b0
0052
0083
007b
00e2
005e
003b
00af
0022
ffe6
0093
00e1
0061
005c
008b
00a9
0034
ffea
fe90
0023
fffd
fd0e
ffdf
ffeb
ffc8
0017
006b
0101
0151
ffc2
00a1
007c
0002
fff2
007e
005c
0018
008b
0046
0053
006f
008f
00a7
0048
004e
0044
00c7
ff7d
ff53
ffde
fd8f
fffe
fffd
01cc
fe79
ffda
000b
0048
ffb2
ff99
0099
003c
00aa
ffb9
003c
005b
0089
008e
00a2
0048
fff6
ffa8
00a4
ffc8
002b
0040
ffce
0044
ffbe
000a
ffae
fe7e
019c
0003
ffff
0001
fff1
01e7
00f2
ff71
ffc7
005b
000a
ffbb
009d
00e3
0039
ffcb
0051
ff76
ffed
0070
fff3
00b4
ff97
0018
ffe2
002e
ffaf
0075
ff4d
0027
ff9e
fd01
fffc
ffff
0002
0002
0132
ff15
0055
0081
fff8
0012
00a3
0094
0021
ff2e
0009
fffa
0094
ffaa
fefd
0041
0017
ffe4
0044
0083
ff8e
004e
fffd
ffb1
ff7e
00c9
ff03
008a
fffa
0003
0000
fffe
0002
0137
fe3c
fff4
000d
001c
ff91
ffc1
ffbe
ffbe
ffb5
0044
0037
ffc6
ffcd
ff5a
0042
0091
ff84
fff9
003b
fffd
006f
ffc4
004e
fe3d
017b
fffe
0000
ffff
0000
0003
ffff
0015
0301
ff3a
0075
000e
000b
ffa1
ffc3
000a
fff4
ff77
0004
000a
ff16
ff42
0026
ffc4
ffe6
0014
ff8c
ff85
ffb3
0083
ffff
fcec
0020
fffa
0002
0001
fffc
0001
0003
ffff
ffff
fba9
fd45
0071
fffd
0061
ffc6
ffe0
001b
000f
00a0
0062
fff6
0000
0071
003d
0047
000d
005c
ffe2
feee
fead
fbc4
ffff
fff7
0000
0002
ffff
0001
fffe
0001
0000
0003
0005
00aa
fe14
fefd
0031
0013
00c4
ff90
ff2f
ff54
ffe3
ff72
ffd2
ffa6
ffa1
ffe4
0030
000a
ffd1
fe75
0021
0003
0002
fffe
0002
ffff
0001
fffe
0001
0005
ffff
fffd
0002
fffd
fffb
fe26
fb33
ffb5
ffdd
ff4d
ff8d
ffac
0011
0031
ffb1
0042
ff79
002a
0072
fc91
fe65
fffe
fffe
ffff
0001
0002
0001
0003
0006
0003
0004
0001
0000
fffd
0002
fffd
fffb
0002
0003
fff4
fc77
fefd
007c
ff45
fffd
fffb
ff18
ffcb
fe3f
fcc3
0002
0000
fffd
fffe
0000
0002
ffff
0005
fffe
ffff
0000
